/**
  ******************************************************************************
  * @file    audio_data_params.c
  * @author  AST Embedded Analytics Research Platform
  * @date    2025-12-08T02:21:15+0600
  * @brief   AI Tool Automatic Code Generator for Embedded NN computing
  ******************************************************************************
  * Copyright (c) 2025 STMicroelectronics.
  * All rights reserved.
  *
  * This software is licensed under terms that can be found in the LICENSE file
  * in the root directory of this software component.
  * If no LICENSE file comes with this software, it is provided AS-IS.
  ******************************************************************************
  */

#include "audio_data_params.h"


/**  Activations Section  ****************************************************/
ai_handle g_audio_activations_table[1 + 2] = {
  AI_HANDLE_PTR(AI_MAGIC_MARKER),
  AI_HANDLE_PTR(NULL),
  AI_HANDLE_PTR(AI_MAGIC_MARKER),
};




/**  Weights Section  ********************************************************/
AI_ALIGNED(32)
const ai_u64 s_audio_weights_array_u64[5765] = {
  0x17d87f09d0c03bfdU, 0xcb49b41a1ef21677U, 0x9fcc42163d17efdcU, 0x1e61b71143cb6739U,
  0x8792bb932f90a1eU, 0x2fe0edeafc18b5edU, 0xf2e07fd03d1edb2cU, 0x343c5def51448f7U,
  0xe8e8f5624231004dU, 0xf94a594ae34e4cfaU, 0x13210c479713cbedU, 0x813434dde5e39936U,
  0x4ae520acf4cfb3b2U, 0xd17528efde24d231U, 0xe0c94cdfae4f37e8U, 0xd0d2e907151a1625U,
  0xcf5dd51c1fb19a25U, 0x949de91c8682821U, 0x3623a9d47fd2f51eU, 0xf8fdc092e3bd1a5dU,
  0x11aa17da9a7fdb76U, 0xed6c1cb7867913bU, 0xfaf429e8b2e354f1U, 0x14eb5d034c87c48cU,
  0xe9a076014a7b9ffaU, 0x127fecd41ffe13e7U, 0x6b13bd273dd40247U, 0x333e45542326300fU,
  0xed0ad5de305e333bU, 0x3a7243126eeb5e50U, 0x131933122f121e0bU, 0x5b3e7f0d42e209f6U,
  0xfd14256c0a5fcf19U, 0xede016c10afcd1e8U, 0x628de114f0b11dcU, 0x74bcee54fddfcf5U,
  0x4a0d16280c201e18U, 0x92c5a59b57fd94cU, 0xb3f5f1efdd39e51aU, 0xc7d7db3139ec879cU,
  0x560b92f3aa52c700U, 0xa5f3e8b353fb68c0U, 0xe12ea8a9b3adcff1U, 0x3e1a2d523d8111ccU,
  0xfbc7991ecb21e3d6U, 0x35429984ee2da769U, 0x112206f468910486U, 0xe98b8d6496d3f6bdU,
  0xfb10810f57a6b7f3U, 0xfda53222fcfa7863U, 0x5d142e89f1abc637U, 0x1a035d3881a98c35U,
  0xc7c893cfe2a3eaa5U, 0xcf1d2dc54760e8d5U, 0x9b7860f7b2b4f1ceU, 0x34ff1c16c33fe6f0U,
  0xcf7f5bbf01e01b3bU, 0x223e24d602f8f452U, 0x67eff4f941dc2105U, 0xa3fbd271918d163U,
  0x27fce6b00d84353aU, 0x46a8acc27487d342U, 0xe6eb526751b637caU, 0xaf3bb5c452e47909U,
  0x7512857baa7fa885U, 0xdcdf06f2faf6f4f3U, 0xaff13320d551d134U, 0xf10009c6e104bc04U,
  0xe55f9f8c9e3b632U, 0x16287f1ec6185345U, 0x2234d03b8bc4ceeeU, 0x8d0af824b81c8835U,
  0x4fd20431fceee08eU, 0xe47f36fadbf4ce4cU, 0x23ec38ff35d9fce9U, 0x2da07646ba81346eU,
  0x40cd688f73592b63U, 0x5a39f27ccb7c7536U, 0xea4503c84de8e355U, 0xcaecec894aef8b95U,
  0xf1d2c93fff810a67U, 0x2442ab25f1097996U, 0x7ed2bf34d3b3f357U, 0x8f44376acb8b6496U,
  0xe2df2900153daf7eU, 0xd5dd73e54b2c2c04U, 0x2dbb6502d04ef26fU, 0xbdf5277b4115535aU,
  0x29e59dd2b62fd154U, 0x3219237fd31b204fU, 0xec04db19ddbb2410U, 0x92211213e04b81bfU,
  0xedd4bd080428c51cU, 0xc719f3f40df1d74bU, 0xcfe9f621a5330525U, 0xe9c24adbff0eb9e9U,
  0xa4a04dcdc06a5461U, 0xd8f1fa25f337322bU, 0xf1e8addc152e2a4dU, 0x3a357f1af4b45f5aU,
  0x125b389d816ee360U, 0xa9a63962a36b5d9bU, 0x8c871d57624dce2cU, 0xf5ecbed1c3ab6a56U,
  0xe94f4d42cb190f5dU, 0xd27fc6ed1be93b3aU, 0x90fbfef4efb42303U, 0x45290b320a9aaab3U,
  0x9b963ab842f90f6aU, 0x3c880073bd4c6069U, 0xe1072c2bcbde0101U, 0xa319c3fabaec81f3U,
  0x581cf5e3fa26b7daU, 0x40e53fbce07db41U, 0x7144add0b1137feU, 0xfba13f42762f1027U,
  0x389a9313a02a6e77U, 0xef05b35d6be81daU, 0x302679687bee9755U, 0xa5ff4c0efc836386U,
  0x68ed8234b55aace4U, 0x4d6840d80ecc381bU, 0x6b5df7c8a0f718e2U, 0x127f4e3f155c6b56U,
  0xbbe1f0e03acccfcdU, 0xb1dbbbe01c9bc7f4U, 0x141f82e4ca4a8144U, 0x56f068f5ea46aae3U,
  0x301163e532ebf1ceU, 0x66e6b5fe2ad5a8b6U, 0xf2135fcb0cafcef4U, 0xa5f6e156bb29b113U,
  0xe42abba10ec427d5U, 0xcf06dd09b740e9f8U, 0xe1dd7fe5f911d83fU, 0x62b1687302d8404aU,
  0x98c6bdcd2e398b7eU, 0x4a0cca1c646236eeU, 0x7fbe8c0539e8a0d1U, 0x60e77d7c40f1927aU,
  0xc00bcd1ec345fbeaU, 0xe552653cf3e8c965U, 0x5479035c61e4b2d6U, 0x5935ee09f4fa2e41U,
  0x27287f5620476f3fU, 0xd235d813bdd0d3f7U, 0xd50e19f6db1581ecU, 0x6d061bd7cee48ab2U,
  0x154d1f1e13eaecf4U, 0x37b2fee24be9c6e4U, 0x9ff77fea87dc28fcU, 0xbc052722e375f73fU,
  0xd4701d4154e07251U, 0x626ab64a31362f9U, 0xee540bbcf8eb6a49U, 0xa077cd177aea4043U,
  0xd9230656510b6349U, 0xf968737ff7056231U, 0xcfd60e9c0b53d132U, 0x277d7d3f2380438U,
  0x63371d316e0df20cU, 0x6b6647457f083bf9U, 0x2826e0762d673a4fU, 0x9bb2fe0ad244c802U,
  0x635704f034031cf0U, 0x7fca4bc5f7400ffcU, 0x4628fd0047af2ccaU, 0x24e7d0f13c642f37U,
  0xeae8ee314bc56b1aU, 0xea9b36fcc6b5df32U, 0xde675f60f2c49f0fU, 0xfc39a453eb1f44f7U,
  0xd7b2b1193037db07U, 0xcea7ebb8e453ea96U, 0x611e467f9c157cbaU, 0xfb4b131a1ed502eeU,
  0x2a2b2a41ab408161U, 0xe4db34cf1420c9eaU, 0xe04e24c90e03e6ebU, 0x2403eded3463437U,
  0x1a288ff3b9f1d1f3U, 0xd710ecee04af09cdU, 0x7fff0e2a9c18109bU, 0x2c1115eb66f55accU,
  0xe2e0b63422c3c9cbU, 0xbbf762fb38ff1e02U, 0x5e347f021ae5dc46U, 0xd45efb233575153fU,
  0xe2aacadfb2499d00U, 0x35ed5b673ff2e43cU, 0x104313dd5b04300dU, 0x6614251df7dffb1eU,
  0xea0b3555ff40e61eU, 0x1e81ecc4203100fbU, 0x1810d7e757fccb9aU, 0x6dc4e009cf893846U,
  0x75cb4b3377de6f2bU, 0xe581d6a1088e4360U, 0x4d73b1d1d30ef34eU, 0xcc59c146cfd306ddU,
  0x52ebe7ea8803d4f0U, 0x290bbb196fadfa00U, 0x4af3406090ef35c6U, 0x577f395d6c4e2520U,
  0x65e509f510cfdaeeU, 0x635c250acf5ca936U, 0x602a8db5eaed1ca5U, 0x5857229f2404b1fcU,
  0x279bab81511af6c0U, 0x32893eb5f240088U, 0xcaa57045bd5caa25U, 0x923da639c47f460cU,
  0x6a88f4eb6c584e52U, 0x54f7dd7d691d69dfU, 0x2339f3e711572b13U, 0x181ef836e4341e00U,
  0x9a05e23abe51813cU, 0xcf3d80404d6aa05U, 0xd93441f29d35a437U, 0xfc265c16ff4a3b13U,
  0xd0cad229d998b7f3U, 0xac14626e1d1f8109U, 0x41df071ef417de16U, 0xb7d800f0c97acb11U,
  0x22fa2c4640bcfa4eU, 0xbda5be4b6f59ed36U, 0x72e2d5d5819bf0aeU, 0x4103aac7a53e8a46U,
  0xc73a49b853c16458U, 0x841888c20238e7a4U, 0xab36d63bcf20aae6U, 0x810228e70403b7faU,
  0xdeeddcb6d7c4cff4U, 0xc441efd16dbb246U, 0x2d3d7eef2f24622dU, 0x7f940b5a44adee33U,
  0x1e2c0f546fcd197aU, 0xac89da7c6f589aadU, 0x7fd58dd2e2b472b7U, 0xc10e015da43e8396U,
  0xe72e58e6fb23224eU, 0xe7567f7257be23a0U, 0x1be8d3ed276beb06U, 0xcf57d86e9f8740feU,
  0x76e847b52c495c2fU, 0xec33eef3072a09f9U, 0x2b25b13f4ee47f0dU, 0xe9f32f3c7c2970e0U,
  0xbe1ce0e65e25cb0U, 0x75d706f94ca952b4U, 0x1b40fdd8a563e850U, 0xe890c463e418eed0U,
  0x148acdc78bf883beU, 0x43c1b57a7f95fb29U, 0x2b02538d5145a251U, 0xea6d86ea36a63c0eU,
  0x7c33ef19df06c81bU, 0xec07420f46431beaU, 0xc2f13c26feb42d2aU, 0x46c4ecd37fcd879eU,
  0x9d43521b728b8b30U, 0x816274ab31297ac6U, 0x7aeb4fb24c960e4dU, 0xc43664a2b7b425a8U,
  0xcf6ed0b2e24d3dc9U, 0xcfa7fc3081cd2f4U, 0xcc18daf1cd4b1752U, 0x982ccc0071c95c2cU,
  0xdce49d21eb0208deU, 0xe13d3ab2caf2141dU, 0x33594734132407U, 0xfcfc7f380c5bdcdaU,
  0xc024ef452be43325U, 0xd16b8f6f065a413U, 0x12243806fc13f32eU, 0x98a597ee44a2f458U,
  0xbdfa0a0a46736d17U, 0x81331b3619a05312U, 0xb00c819cefbd2158U, 0xb74264dcea6bae29U,
  0x552881d7a917c7ecU, 0xf95349ff7194520bU, 0x682819c6e3131417U, 0x591065613fa46cc6U,
  0xe4d1e3e4b1ed1cU, 0x6ed4d1fbc9e0b8ebU, 0xf05fe0387f0e66f0U, 0x5be44e5c9c4cdbb5U,
  0x1ded2f5c4e3d6ff0U, 0x1daafc3444d2cd39U, 0x53e8271d6a812c6cU, 0xa4f01e8bc919c7f5U,
  0xc97685e9d9edd1b1U, 0xe8a7b5304f29936U, 0x1785bd44d601b969U, 0xe4e67f041e37fa00U,
  0x1d1c1cfecd242be1U, 0x96f6e4df2dda0d13U, 0x1deee32bd4edce02U, 0xc15d0a29e23b7732U,
  0x1653660906749b4aU, 0x84c494edde720e51U, 0xc9041965bf873740U, 0xf8ce38d8bce331d8U,
  0x4701aed0bf7f7ccbU, 0xf61d42f5fdb212f6U, 0xce2bf42ea81c8173U, 0xfe195e1b3be82734U,
  0xeadeb91cf107f146U, 0x41104117fb2fdf3aU, 0xb0f23c0b32290c58U, 0x999d1244652b4686U,
  0xefac3f4f8f4259c4U, 0x4843b48b8e7ff737U, 0x7887b5770756fbe9U, 0xdf211c1b2cd4f8f7U,
  0x430b81e0a53b295fU, 0x1ae9d8c01f39484dU, 0x1d2dc503f8fb26e1U, 0x453eee2b54c2e33fU,
  0x240b4beffa1712f4U, 0xfde8071ad44e7509U, 0xfbeff9de5b387f01U, 0x48e4e208ff0d6017U,
  0x2adfd7060f5c600aU, 0x3d0b19ab88d00f5eU, 0xc094aac20ccce581U, 0xab89d51aaccdc2faU,
  0xabc2bc0c62014016U, 0xabb59ff545e8d6b4U, 0xdd1c6b3883d9cb72U, 0xcd77dc2681d8c5b8U,
  0x164658d5107dc804U, 0xd8f583c10091688U, 0xaabb04308ee8b22fU, 0xd86568627fc9f148U,
  0xfb057857477c0fd8U, 0xf6a388348f4b9fc8U, 0xfd0996324b0a4287U, 0xad9e24b1262d296fU,
  0xf8eb221b4b44d4eeU, 0x391d57b842634564U, 0x90f34830581d1e66U, 0x12f215cd9d481b00U,
  0xc3e97f0bdcef7effU, 0xc0067fde2120e9f8U, 0xc2f3e93d12342537U, 0xcb1abdf854dbf8d0U,
  0xfbfdb753fef7f8f6U, 0xdb3377e8b7212706U, 0xdb5bb8e6be2608f1U, 0x34456d57f5d3138U,
  0xf230126ce3124637U, 0xfdff25e469016feaU, 0xed45f93157f23ff6U, 0xe7f7d670d0cf12feU,
  0xd21fe64bba428e16U, 0xe623e6c00706f10bU, 0x295ae9368126d22dU, 0xe7b673f608315651U,
  0xf70ce227a8123b19U, 0xd832ebd42d28f7b5U, 0xf9c9beb2aae0d4a5U, 0x52fe0c22f4c1c2cfU,
  0xd0ad06f481250e0aU, 0xaf0ef19a3632caf3U, 0xd96d6eefee26a16fU, 0x4722290b7f261935U,
  0x113d0100e669c1f3U, 0x7b7fef482334cecaU, 0x4d52c5023c938e31U, 0x9385cce71da42a63U,
  0x615851ff7ff04069U, 0x46e221947b5e09a3U, 0x237f40c40585e36fU, 0x21edd9292e144010U,
  0x8d451e767545515U, 0x8747f1e6a266aU, 0xe181d72702241b25U, 0x4413bb233a282defU,
  0xedc3bca7bc2dd926U, 0x56b52b57012b40d5U, 0xd93bc31f9b3bc13eU, 0x55548185b0fee57fU,
  0xae5e62f7a309c1fbU, 0xe891d037a995de30U, 0x1bb6c2541fd6d6a8U, 0x58bf92b59c871e47U,
  0xa27f9a62a246b1f9U, 0xc062107434ade54fU, 0xcec2bf3bfcf2ac6eU, 0xfe8a75a18f7134dU,
  0x84318619b887f569U, 0xe657cac03979e58aU, 0x883059c57b7f2969U, 0x3fa01461239d2f2U,
  0x232f3a427fbc3116U, 0xe3cafeeff0addb64U, 0xf9f132ffa561eeU, 0xaa01f2d0cc5bd918U,
  0xa80853e0f9dfc3f2U, 0x8115d6ed2a54c826U, 0x19df33044804cbbcU, 0xf54ff4da9f10c320U,
  0x151d4b00d3f828dfU, 0x3dfc1642488ee53aU, 0x5b242a957a3881daU, 0x32249f0742ae75a3U,
  0x87bdbb0922d3ebc3U, 0xb17f11888fd7e903U, 0xfbb97fede830cfeeU, 0xc6d3fe58c521fd4eU,
  0xc7feb0231cde2012U, 0xdeeb13041decf42cU, 0xe44547001e5c3140U, 0x3a50a32e25b73002U,
  0x5304012a0e2ce236U, 0x56d47f38bd7000e2U, 0xb5982cd2414c15caU, 0x3ed2d2c942e0dadeU,
  0x5621311f2226f6efU, 0xdc6366dc434c0027U, 0x31efec7f023c1a25U, 0xf3d1ed2255675b1aU,
  0x204555ffef5bedd2U, 0xefaabd7572c1a443U, 0x62cf0928c99f4551U, 0xf225e4f4cfa9997aU,
  0x3c9c03e381c7fd81U, 0x5bff0e4c1b5cb18cU, 0xcd5e5977fbbdfd1eU, 0x59fd1cd683f31b49U,
  0xe2e5ed61e3fb78bfU, 0x63ce594e20500898U, 0xce64007fd62e3d10U, 0xc64349cf40d52a08U,
  0x7fd71d1509002544U, 0x8100584b12175864U, 0xd4a2b6bc02ccbc18U, 0xe9e3281544efdc0aU,
  0x2b2a864cc5768140U, 0xdf7f1f70640f48b0U, 0x63645928af6422ecU, 0xfd493905bcd56b5bU,
  0x285eb2d95f9c8d8bU, 0x2f28f02bed401f06U, 0x4a2966b748cd6ddeU, 0xe010377fcc44f114U,
  0xfe0f6f2311ff6c2U, 0x2114043422fc3f25U, 0x57d6de31b155fd01U, 0x475125b367c04bcfU,
  0x325d7f7ded544d6U, 0x4710f4247fa77211U, 0xb0baa8410ff5ecfcU, 0xf31fe419c5e9e7fbU,
  0x9b32de37f31281f4U, 0x16dcede8ab07c0c5U, 0x54352fde00afb4cU, 0xfefa10f2e9e8b8fcU,
  0x457f04508654a5e0U, 0x307768eb074a16cdU, 0xdf0c2bf643ee1c44U, 0x4760741471d50e33U,
  0x785e1be039e1c0dfU, 0xe0a42315bd4c317aU, 0x61c391acef46afa8U, 0xddb7d678913d84a4U,
  0x23c0bcbeb96288ebU, 0xece35cdd8b811ef2U, 0x7e4e1cafb8d8117eU, 0x667c28ee20e24f91U,
  0x5d4c06f25d45c178U, 0x76478719ca07e1e2U, 0xbe568a7f5389e4f2U, 0xddd1df4d9a9b01fbU,
  0xc477b711bd348102U, 0x28293f2b25e7db38U, 0x1614f81ef9242319U, 0xefadd840df000b4eU,
  0xf6c9ca77b326b377U, 0x16b5a8c2505c2fd5U, 0x846be54ccc85a546U, 0xbadbe87f58fec8b7U,
  0xa7afe0082ca346afU, 0xef29c70e09dce3fbU, 0x48e59aede1ecc6d9U, 0x7f2b330d09fefbd1U,
  0xdf2534cb58dd26c7U, 0x2000def511cedccbU, 0x6462be31f23f1af8U, 0x7d347f1f71e21b03U,
  0x513d576af61bda74U, 0x5c42faa4343d638U, 0xd50a9784360e59aU, 0xb2ce8cedfa1cb816U,
  0xebaf18238ac79771U, 0xdf2d7eec7d61f73U, 0xe8e19bf57f1c43a8U, 0x9cd2c9b8ee0eb3e7U,
  0xfffffff9fffffff2U, 0xfffffffffffffff1U, 0xfffffff000000000U, 0x800000009U,
  0xfffffffdU, 0xfffffff300000000U, 0xfffffff9fffffffeU, 0xfffffff0U,
  0x1200000000U, 0xfffffffcfffffffaU, 0xffffffff00000000U, 0xfffffffefffffff3U,
  0xfffffff0ffffffecU, 0xfffffff9U, 0xfffffff3fffffff0U, 0xfffffff0U,
  0xfffffffa00000007U, 0xfffffff5fffffffaU, 0xafffffff5U, 0xffffffff0000000bU,
  0xfffffff0U, 0xfffffff400000000U, 0xfffffffffffffff4U, 0xfffffff7U,
  0xfffffff800000000U, 0xfffffffc00000000U, 0x100000000U, 0x1U,
  0xfffffff2fffffffaU, 0xc00000000U, 0xfffffff200000000U, 0xfffffff300000000U,
  0xfffffff5U, 0x0U, 0xffffffff00000005U, 0xfffffff5fffffff2U,
  0xfffffff0fffffffeU, 0x600000000U, 0xffffffff00000000U, 0xfffffffa00000000U,
  0xfffffff6U, 0xfffffff9fffffffcU, 0xfffffff4U, 0xd00000000U,
  0x800000000U, 0xfffffff200000000U, 0xffffffedU, 0xffffffed00000000U,
  0xfffffff600000000U, 0xfffffff9U, 0xe1d4f71400accda5U, 0x4c3229d39be9303eU,
  0xab0532e288cb4508U, 0x1d21a74128482806U, 0x5758e202155149d1U, 0x9a99d02c08e14dfaU,
  0x37bb81e33262b5e3U, 0x9cab12cfd256d3e1U, 0xfdce1623e9fa5754U, 0xc73c12c1d961e489U,
  0x75233ee12115fc9aU, 0x1cfd13fbab04be3aU, 0x233b0cfcac01dbbU, 0x10fdda81d6bf1ed1U,
  0xd0bcfbc4d009da20U, 0xe8ea262d05294a4dU, 0x481c38d00ce30337U, 0xefc64ecf280ae6acU,
  0xc63bffedd037286aU, 0x1509bc03e1c3b422U, 0xc7ccc43b061eb7d6U, 0xf9c3ebc6e9d8b117U,
  0xede4d1430ce246caU, 0x1dfacc18c3becba9U, 0xb91bd9e32c24ef07U, 0xfd75f6e8f2dc2dafU,
  0xfefaf0bacc083303U, 0x11202fe1150ff30U, 0x29d3d9dc3a18110eU, 0xe9f7f9c7130ae61dU,
  0xee0eeff2b6060bcdU, 0xeb2ab920dd0500feU, 0x113d0e15cc51b0cU, 0xcee4f8d2d6f8d0eaU,
  0xc7eafddc7fe4f543U, 0x1c80ee809c3ea08U, 0x73216d80c1de3faU, 0xb0c2c01c71134e7U,
  0x273e1a11aeafdb2bU, 0x1936272acef71c2dU, 0xd2e6e0f9d73f03f2U, 0xfd31d01d0e1ea9fdU,
  0xf80adbd6ffc039c8U, 0xc8e61ded1b13de81U, 0x2105c6f218e122e5U, 0x1d26cd11e8e6fedbU,
  0xde29100f26120cdcU, 0xc3313c16efced7f6U, 0x9de8b6233fc43cd3U, 0x3ccec9fce8e82907U,
  0xea50b9f90f0abd13U, 0x440bd1b8cce8b860U, 0x3a0cbcd800debcc4U, 0xee58281ce8e0dc81U,
  0x368adc8d1e831c9U, 0x9c5c7bdccdae2e3U, 0xcd36151bc03dbdddU, 0xbabd0fdd52ae0700U,
  0x37f82a1dc1bd1111U, 0x5becb31e36471b29U, 0x3eb4adbc64335eaU, 0x20d8fad1a704e9feU,
  0x9b9d233d1aa6ed00U, 0xa0da339628e24205U, 0xceec2b3302b10448U, 0x968f1ee0df9d643cU,
  0xa2a1aa520d5c8cd7U, 0x343aea4a0381cbe8U, 0xed51a0f6ec41c39fU, 0x712c23970da1dfb7U,
  0x3f1756cc41adbda8U, 0x4d02f41f4053bec3U, 0x988832340998e2bbU, 0xc0d2aff30332c3edU,
  0x608fb018caa4fb4cU, 0xd8e0d5c42b3a2af7U, 0x84b081ce4292c14U, 0xd848fd1845619108U,
  0x1b1b71ffee2a3ce8U, 0xded9fc381a46f7f1U, 0xe004397735eb28dfU, 0x20cff5071309fd11U,
  0xf40ee3d3982a103eU, 0xf710eff93f35e6e0U, 0xd80fe4e7ce13243cU, 0x81ecfd092bf5eb0eU,
  0xdad6100b39c5f02fU, 0x8f9f68bc16ffedecU, 0x3b9746d5ea07031bU, 0xecf315c46cdd2a90U,
  0x256ed6bf9fb51ba4U, 0x40c9fdf001db4931U, 0x8a51563cdfb4caabU, 0xe598f70c493eeaccU,
  0xa98e2ec29c81ff4fU, 0x31c0938784272789U, 0xf1cbd9c742dddf42U, 0x5d9ec4da4b772a26U,
  0xf1d3b3aa838d93dbU, 0x311ab015105737bfU, 0xfec30e2275a35e36U, 0x19dcae04d8dc2181U,
  0xb20173d026993b36U, 0xa3da7b5a0de82834U, 0xf21114b40d54d02U, 0xd7b2f3c2b21829b6U,
  0x90ee2a4042d8451bU, 0x91c7086ab9a219c3U, 0x695794b98fcb2d0bU, 0xd1afa92babf81e37U,
  0xdcb3b73007ae04abU, 0xf972f61d79c183c9U, 0x46fdd2cb6feda9a4U, 0x1ac9e0b4108125afU,
  0xfb45f9d0b1062ffaU, 0x33ce21bb4bed33cU, 0xb56e33e1383bd030U, 0x151e2323bbf1ddb9U,
  0xdfd9f825de05c451U, 0xfcfd7de0511bf1bU, 0x483f13b2302f3d3eU, 0x28cfd7d9e017b404U,
  0x24f030d3aafbb320U, 0x4d52cae6b846b2eaU, 0x490f073729dfbe0cU, 0xb639ceba13ba1cdU,
  0xf6e13fb85f0be012U, 0x2dc9cf358716e4deU, 0x16ee63b949ffd44eU, 0xbf68032b35ed06e1U,
  0xc8973026ef4538fcU, 0x995caf53c5bcba69U, 0xe25b32ead8d90381U, 0x8c4cd9bbe02a3d32U,
  0xaf593fdefbabea8eU, 0x6fbfbdc3302ba199U, 0xbc116951dda650a2U, 0x47fb39410108edeeU,
  0x3cef2eeac7a5e4d9U, 0xbb2bc2f2dae63b38U, 0x1cb9f5d413b902d0U, 0xb2344e1801cc1221U,
  0xf7fa04cd3ae2ce33U, 0x272bdc06bfbae5d0U, 0x7fbbecb3e2c65500U, 0xd7e5e5303714ecebU,
  0xe4091c2ed2ed033fU, 0xf1ea071fd5eef115U, 0xfed80ad8d4d42ac2U, 0x50f8b8180a3ed535U,
  0xfe81a53ddeebcdafU, 0xd0e640ad39e1b8a5U, 0xc7241529b243c459U, 0xe92a27b7bad89affU,
  0x648eb8eb1fd3cbdaU, 0x1ad2a0c94211e6eeU, 0xcf53f0f104d30b15U, 0x955efb1ef1f0141aU,
  0x4dd540042df3ef4dU, 0x2d9e406e908f0dfU, 0xc8195639ad41ba3cU, 0x55b7df15e5d51cc7U,
  0x2e3fd39c16f9c128U, 0xd9d926f0dd3a8a52U, 0xd97fe3d5d239de18U, 0xe0b01202f7c64a63U,
  0x372331094646bff9U, 0x1b0c0ab9f2c1f3bdU, 0xbbd3cb1a2fd4ca04U, 0x96f69bac92044cf8U,
  0x6e261db74534283aU, 0x48fecc0de9a8f628U, 0xf0f999c82c54cdc2U, 0xea4f35c2f7eb681bU,
  0xaa3bd1b363d6ea83U, 0x97c3e7641fdb9cccU, 0x6cdd1d18bd9e08b2U, 0x6b1963b549c03969U,
  0xc2a3e72462defbcbU, 0xc4beb5abdcb9ec04U, 0xd44ecddbf9b3fe0cU, 0xdb3ca2bd22481525U,
  0x2f96fb1a396a2eadU, 0xe99865e54d25cd52U, 0xaacebee1f529485fU, 0x4cbfda56d2433dcaU,
  0x9b9252d0a781cb34U, 0x49ed26c7a5d4d8cfU, 0xfe5058e820e4999dU, 0x300e2437def1cab2U,
  0x39f32e86f92dd628U, 0xa121f6629e9a259bU, 0x340a37e8ce63cf98U, 0x33e0134ce2aae1c5U,
  0xbd253d3b94e9bc52U, 0x4ba3465d132ebf64U, 0x2a2e458141d9e02fU, 0xa80a282539b85838U,
  0x8a8924b5105809f9U, 0x51fc18512de4afa9U, 0x277f0d20e2d3eafbU, 0xf51623250a2de229U,
  0x16f5ef1dc50407cbU, 0xc821b800e8c4b5c1U, 0xd83d290dd6331506U, 0x30de050c1ad434c8U,
  0x173014f9eacd28d2U, 0xc5f2ce3702f00c15U, 0x13019ebd1f7d700U, 0xe01922caf83802cdU,
  0xef0e0d3224e5f3c1U, 0x9d037e9215616f8U, 0x791c87d2d217c60fU, 0xdba2d501b77f211eU,
  0x6a4ddea86bb7434dU, 0xfa4ace638d2efdfbU, 0x62369097a9190397U, 0x7b9bc68e9b8dbdd2U,
  0xdbbdf2d22a555b08U, 0xde3ad0003fc6ba3aU, 0x888ac13bb915dba1U, 0xf6d61becb38ad69U,
  0x9d7ac893464ef2b6U, 0xac240bf2be3e29d3U, 0x3857e1c738996ebaU, 0x8740d79d63f0ebc0U,
  0x61b4f6a335021c1bU, 0x7a69dc84abf0760U, 0x57a7d4b2b50d9d9cU, 0x6c9cd0feb9c8cb35U,
  0xb395eb2104d5b117U, 0x9ca739e6faaaad50U, 0x9862a712df67dfefU, 0xb5ad0f8cae5d56b7U,
  0xb7935324a6efc981U, 0x1c9fae03c91a1d3cU, 0x43069eddf502e45aU, 0x5cda2b99e5cec929U,
  0x43d31c853767c505U, 0x3aa0b1c32605a47fU, 0x3a862a219c91314eU, 0xb370d897991607faU,
  0x4db2df0fe528eb3fU, 0x88032074de546b8aU, 0xf04e92f625986073U, 0xca29de3a53f00eU,
  0xfc4e4318d287d199U, 0xb8d06b62fb6fa0e3U, 0xe7931c44b4e1b3a4U, 0x9de52f9eefa1abc1U,
  0xc3040ef4afd0a12eU, 0xfb21f3cdf9cac915U, 0xfa12f244e9dbec2dU, 0xc3c30207b09eb4c1U,
  0xcdf4b000dfcd35d2U, 0xc52049d8e30a511bU, 0x29ee4e594b09d4U, 0x3c3eff0cbfb83421U,
  0xdf39b60de6fd0cfaU, 0xae40b43c9cc7cc09U, 0x6d1d1a33d2182dedU, 0x43322b11f08194acU,
  0xedb1c9a30221fdf2U, 0x12b750894d311eccU, 0xc81a23af468e27c6U, 0xfaa131ad179c49b6U,
  0x27f44b3f4f0dd5c3U, 0x344744d31166e20cU, 0x5d3c1f0d46940e16U, 0x393917cce455ec54U,
  0x15164fd0fea11a22U, 0xe54d01e1030d41d7U, 0x6981d5c3bf5331cfU, 0xacde430950185bddU,
  0x5800e7cbf1399dd5U, 0xb5d9baa565d5ec9bU, 0x1eaf982bff975b0cU, 0x8ba6ba145fe1ed60U,
  0xcd1b4f0054ceb94eU, 0xf3f8838faba1a84eU, 0xe60f27343f53d212U, 0x77da8bd93552d00aU,
  0xfb3067938dc2b1fbU, 0xb381ca8f4b55cc96U, 0x5a4768e5ad629d24U, 0xba3b08fab2aefda3U,
  0xa2348faeb8e2a101U, 0xb02d7c51af0c54cU, 0x32fe0962cc23240eU, 0xef06e0c60be80b11U,
  0xf8d8dccad9b7291aU, 0xf12c0e06ece588d3U, 0xed270b0a0fd4e408U, 0x2cf933fe17c61808U,
  0x42002e0be3db15f7U, 0x2d9c419f1dae205U, 0xf7f00806143bff06U, 0xdb0edbd040d91f42U,
  0xe37f17e98b1e23ecU, 0xc9e9044009c038f8U, 0x362a3e40ed254bdeU, 0xf1aae0e4ad3ddc1eU,
  0x17e12549b8082338U, 0xb59ea24b12202e2aU, 0xd50ba6fcdd9ca9faU, 0xb7e9fcbd21f651baU,
  0x9ebe7b0aa5fd659U, 0xb0a256d4e8b8def1U, 0x18a8190951a8eb2bU, 0xc318ada3a524dcd6U,
  0x3a061cd49be34623U, 0x6f73d05367f22f6U, 0xd49b0a25ca36d309U, 0x300104448cd837d5U,
  0x12ff64eab0b7fb19U, 0x254b8cf01cdd1e5cU, 0x174ab31f3f993923U, 0x145e30ba2cbdb7aeU,
  0x2cbbc5a6c0a8a518U, 0xcede469f4daf20ecU, 0xe4fee9f301b405c2U, 0xebcc240f99c8e525U,
  0x9012a456daff15ddU, 0xf67f2c2435bb46feU, 0x5494ee333d16da08U, 0x4b190a23e70a10d6U,
  0xf8e2e23925bb2e1dU, 0x32cd30391fdbfec0U, 0xc6ec1cdbe9ec15f8U, 0xbf694aabdd330225U,
  0x3a224634f92441f5U, 0x1716bf1b0929d3c8U, 0xa4eac8ea27f6e3afU, 0xc3170c1dd333e60eU,
  0xd2e5fd047fce0bdbU, 0xd6ec3cdb3dbc44b0U, 0xa21c35fc29321af2U, 0x1c0e13e710280a34U,
  0xe915007fd335ed26U, 0x333f9a3bfec208cdU, 0x2d711cedcc0c31dU, 0x311d3bc730f02242U,
  0xa73eba00f3961a3dU, 0x16bdc9b6e5254426U, 0xf2df601dd1b5fde1U, 0xb1544080108dbe5U,
  0xc1462111fdbc393fU, 0xd91012183423d0ccU, 0xcc671943f9183d32U, 0xd3f701d6bf15d230U,
  0x2dd7ee5a4717f1c6U, 0xc7b07f00c5ec29e5U, 0x550cafaafd0b57ffU, 0xaa51a6bfb3bf0f9fU,
  0xc95022162b181f36U, 0xb6ce31e3b52ed403U, 0xf402ad25f7f210aeU, 0x2bf4a80e65d9bff1U,
  0x3eff5bf8fef7e010U, 0x28481ad6f4393336U, 0xeef44530150cf33aU, 0xaf2d281d94153abaU,
  0xfdee0bebc5e5e44dU, 0xf946f214dc262c33U, 0x98af04c13ee25454U, 0x13398be21093cd31U,
  0x8f680ceb56c3bac6U, 0xa83697e4e381daf1U, 0xf1a527e55ce39117U, 0x5aa1e8912208fedeU,
  0xbb0639de4399df01U, 0xa362d9ccb3a317b4U, 0x1a0b1cecb39c52eeU, 0x2a22c406c0c4a32eU,
  0x564d2ebc1ddcd4dfU, 0x462ee546fcc20101U, 0xe212ae57e0cb40beU, 0xdd28d71ee2f60afaU,
  0x261be9f80eda10baU, 0x19350a15f3e42ce9U, 0xd95e8e4b9bcfb23U, 0xbb20810f27c33bdbU,
  0xf0433506cdf5e6d8U, 0xd0f3c1c6060f1a36U, 0xc83e02d52430f1bdU, 0x4cf22fc7499ae505U,
  0xe1443cfc17e83d0fU, 0x454aad9a183dfb3cU, 0xd738203d1cedd135U, 0x97a7fce6d7dd0af7U,
  0xede9a69ea9c1ac63U, 0x278e977fca2afb0eU, 0xbf59343101414ac9U, 0x1733c772f422bf4dU,
  0x64b683cd23aea6adU, 0xdfb5bd946da2f5U, 0xead85795ba199d3cU, 0x25fc20b3f4dd0e6eU,
  0xa51d33cd0ac42954U, 0x9ce7ead6f65fe01eU, 0xf724c744a8cdf8dcU, 0xafe4c53ce60837b2U,
  0xf91d434a0019354fU, 0xd2e4ec56908aeU, 0xfacf5546e0db4c28U, 0x2855cfefc02836e9U,
  0x3d1268ae3005fec3U, 0xbfe9e60ac61a1e36U, 0x2bc41753c6ee1537U, 0xe959ebf5e63ed605U,
  0x3f4dfa1731bd3d5aU, 0xccc055f218811131U, 0xc9c7e8e6b4429255U, 0xcafc07082e81ec0cU,
  0xdcdec3d0ddc1cb36U, 0xd131483703c4dcc0U, 0xe61bd3f8060424e0U, 0x25e0d129120f2e3aU,
  0x3d120709d621da0cU, 0xe517c3c6e127cae7U, 0xe835c10b3dfff5f2U, 0xe8d7eddcff0ab1c0U,
  0xe623fec6e5d011dfU, 0xefa7e9be4727c030U, 0xd60f3822343d21b8U, 0x7fbd46a04216efa5U,
  0xc0cab7e63eed00adU, 0xc4fd2a22813ee4daU, 0xb211a327c4afd3dcU, 0x1474b7bc9fdd12dfU,
  0xf3888cd6424d8df9U, 0xbd0b9ced60f5d9adU, 0x5c655856170eb9f1U, 0x10fc898af6eff210U,
  0xe70594e80793054fU, 0xe3b3bf459dfbcde2U, 0xb19d623042121f20U, 0x34cbb2e12beb9ac5U,
  0x70b0c033e6dc1f8U, 0x6af791206e91b00U, 0x40dc1b21f3031018U, 0xd8e0bd1f3426f8e2U,
  0xfac7ca38d41234caU, 0x142f50d23dc47f6U, 0x5836b3d1d74d05c1U, 0x60745261c1949f4U,
  0xf251fb130c023d42U, 0xc410938f425e2b9U, 0xb4f8712a364fcb3eU, 0xc5281dff5c4f4c4U,
  0xbfb13afbecee03d7U, 0xdd4613c00cee1a7fU, 0x2407dc1252448bf7U, 0x46c73c2e3405ea0aU,
  0x1586c836145eae19U, 0xe24fbe193ad1d538U, 0xe01adb0a03d52035U, 0xd110e7f69710f029U,
  0xee45e6f0e647d4fdU, 0xc3d7480a2128f022U, 0xd22504efdb321c0aU, 0xd6cb004b692341dcU,
  0x6221c300bc1f7baU, 0x2337dd30fb3d2533U, 0x57c85e25a6df97ccU, 0xa98ede11baba02d4U,
  0xbb0953e812bd940dU, 0x222ef4c33fbbefc7U, 0xdbeab0a80b3b05f2U, 0x2b575147d3d8a915U,
  0x1ddaa2d1dcefeebcU, 0x7fee2941f31eec65U, 0x39c116b1101438cdU, 0xa66b7327f4bdb26aU,
  0xe826264bebdfd5e9U, 0xf5d83ec6d100c8bcU, 0xd2bdf642f5d10eceU, 0xc750f3d703f85342U,
  0xdb37d73453fd51faU, 0x1716f01eba23ad95U, 0xe60aed08e2f6d309U, 0xa300cbf3014af3adU,
  0xf22b1933b302f70fU, 0x522660eb40353008U, 0xacee453b9c110dabU, 0xf4a2a4cd1cb9194cU,
  0xd5cd590a5981a72eU, 0x19e21f41a322fde5U, 0xa2b33d31a81c3b6U, 0xfffe1344414f082eU,
  0x1bee1b24d61035bdU, 0xeccb2c6c9d244ebU, 0xefcbba0128dc3d30U, 0xb5f8ea4504ec26bdU,
  0xca070be34c45d3d3U, 0x4949cdf0f04209f0U, 0xf8b7f036512e2de4U, 0xc5dd335944f32b45U,
  0xe7fc8fbed0ec4443U, 0x42c15cbf2a2002e1U, 0xc00f36fe16efa505U, 0x43a5cb4be118287fU,
  0xff0ec1eb9816c859U, 0xc1ff58145123ef0cU, 0x5a348a56bc53b8d2U, 0x10b3001cbe21bebaU,
  0x283ba6d9d254399fU, 0xcdc00dbcce396a2eU, 0xc851f0bc16b0904bU, 0xd2ffed996f1f130dU,
  0xa71a569f231b1ea8U, 0x2d95baf713537dd6U, 0x4881b68fbf2ec9d6U, 0xd25049e518cda7eaU,
  0xb399fcf64dc422b1U, 0x97545531eb1a501cU, 0xc75eebcea3451a2cU, 0xd88f00932db34151U,
  0xbd59c006f3073ad4U, 0xb2270ba891f34ce0U, 0xfa67d5071da042f1U, 0x84291cdf41e94dc9U,
  0xec9e271c1094f54aU, 0xfbc21a99c704c2e9U, 0xd55be92bebabac86U, 0xfcff21bf18440305U,
  0x373bcecb1d2628ffU, 0x5ae4c3404af91517U, 0xf44f62c2304bf9dU, 0x38bad30cd7a0f330U,
  0x33c4bb126c92ed5U, 0xb2476a05feed46d3U, 0xfbabb7027530eeebU, 0xb91954b5f842414bU,
  0xd459c0e5f0233127U, 0x3124c3afb34a2405U, 0x2e0217a8f4b5c72dU, 0x1ae32cdda6a8814fU,
  0x26a7d4a32744bbf6U, 0xb1c566ccfbb9dfdfU, 0xd507b31f09d1a63dU, 0xac14b4344bfe3839U,
  0x1b204de0ae5f64efU, 0x13414f74f4135d2U, 0xabc0ce223544ff3cU, 0x58241bf73be2a024U,
  0x6f4302eb0d4e08ffU, 0xe4e6b61507cb28beU, 0x3e4c7f2e144407f1U, 0x57fccfbdce0d3c25U,
  0xba9d2cf2aa9ad6abU, 0xa4a016b5d4133fa4U, 0x31f750a8b45028daU, 0x22f8ba2badad8145U,
  0xd1d53db07b6d07fU, 0xa41455bbed550ecbU, 0x5721a243fa074a4dU, 0x642de4a050b2fcfU,
  0xfadab7df39b9efedU, 0xc20e4cb23f0027f8U, 0xed3f242ce91e3d3cU, 0xefd7bf223cef6542U,
  0xffc7c8011246d64dU, 0x824369d278931ebU, 0x1d2ce7f30c23001fU, 0xd4da45d7f853e72fU,
  0x1cdcf4b5f91855c3U, 0x28cd3a0801ffc145U, 0x3480bb513294026U, 0xea1ee3fc3316160aU,
  0xecbd1af2351903c0U, 0xcac5eed6f9e7bf05U, 0x280e24c8dfcb492fU, 0x54918127beec2b25U,
  0x103435dfd7493cefU, 0x11aee4e3db1e1cceU, 0x2e4efa24f0290b04U, 0xd12a36e50629a731U,
  0xd1120f0902fcddbdU, 0x3d0709abb513ddecU, 0xd441eb3be23633efU, 0xedfdf20f4425c212U,
  0xd30c251481ee0920U, 0xd219c5052a32f5feU, 0xd403f51ac92af11aU, 0xaebcafc13bbe6feU,
  0x1008fc3675c6231aU, 0xd1fce0c722e32de5U, 0x723d45d2811f20fU, 0x4b47e3beb5cef5ccU,
  0xb5d7dfecaf0c2215U, 0xf61d22a2faf26826U, 0xddfdd33cf7c1a04aU, 0xa6af312dea0a082dU,
  0xb7cb3ccd2fb9d723U, 0xd839dae20615c039U, 0xe3331ab2000dcf5dU, 0x22dad32f244a4d00U,
  0xec5533de81f9b3feU, 0xb507eafac6ebd027U, 0xb6d3f8f5320fead5U, 0xeb295025ea203381U,
  0xe6fe11e13e051eebU, 0xe143cf15d700d7c1U, 0xf60cfde5e5fff7ceU, 0x728d1e1da2d3d21U,
  0xed30f412bae80e19U, 0x1d1c34e81ce3c2b7U, 0x26c33bf625e1d9ddU, 0xecf63601e5cf10f9U,
  0x3103211bd2432eeaU, 0xffc9ddcac007afedU, 0xe91f28120d1b8ffU, 0x571ecccf20fa3cbdU,
  0x182fa5aa0be9e5f4U, 0x3c2506b052974a4cU, 0xda57c73b1627a8fcU, 0xf6c00556b0154a13U,
  0x33bea1f026d6d44cU, 0xe4131c23e21ff4bdU, 0x16befcac21311003U, 0xab0ffe722e1bdf5U,
  0x9c0fa8e64c4c8d9bU, 0x49acd656a8c40f01U, 0x558fac4ec752e3f2U, 0xab81ccc315f8f2e5U,
  0xb71c00d2ed37c320U, 0xbe374ec40afa01cfU, 0x2109b7034f30fe55U, 0xe2d1d6c715bed8e2U,
  0xbd264635e422d9f1U, 0x3228bfce48fb30f5U, 0x2142171e06d0e64cU, 0xd5c9e0ebfee64e35U,
  0xbefd2d46bc46f431U, 0xea2d4f423e01fac2U, 0x5482e062362361bU, 0x14c6d0eaf400c33aU,
  0x8cf28d5df27e6d6U, 0xef20811be514cac1U, 0x285518ef2a150de6U, 0xdb26fdb642bb4de4U,
  0xb5d328a32a174213U, 0xe4f0b5450516d74bU, 0xf40527ce1e44c0c3U, 0xeaf7319beef3f403U,
  0xc438d84045e02f9cU, 0xb0b0b2d29d84444U, 0x47e8bc01cf17da07U, 0x38c1e434403027bbU,
  0x1ae2dd5afd31cefU, 0xd52210c239e216cfU, 0xe9cd0936dc668149U, 0xd909311e42af201aU,
  0xc78fbecfdc222b31U, 0x302daede3315eec9U, 0xdc339cb15b222cfcU, 0xe54d00fdecc44105U,
  0x3a00329db1e916c9U, 0xcb10b94f04c933fcU, 0xe9eb090cf71436efU, 0xb346c6d551e59cbdU,
  0xf20cc12e51d82cb7U, 0x122bf074a40ad5cdU, 0xdeddf64cd42efa3eU, 0xb818b42d2ee6eccdU,
  0xeed7bafffbc1f5c2U, 0xf425dc46159bb72dU, 0x1639fdeb14f7c0c8U, 0x243a0adc35ecd926U,
  0xf6dcf735e8123726U, 0x16ccfec001de35c5U, 0xf2da463bcbece7b5U, 0xf47f2f46a10424cfU,
  0xb7ffdcd3b540be2eU, 0xaa7fdbe0f422153eU, 0x39eb174f94f1562dU, 0x80298e1dd0f1b58U,
  0x8ac843c5dadc3456U, 0xec0a268d380b2113U, 0x85a909ae975e0f5dU, 0xc716c307f43e532eU,
  0x18f8bc0fe3fb18c4U, 0x55e50cb53f51224dU, 0xc66dc990f087c005U, 0x50e116b6eb30d3ecU,
  0xb8cdc6e684f5b25cU, 0xcfcc52cfe3dd420U, 0x2f2b04cfa822a83bU, 0xdb7fb11f04513d49U,
  0xc03957f804f310d1U, 0xea1eca02fe2f70ffU, 0xb301dd2c97cf19U, 0x29f2b2d24cc417f0U,
  0xac2b18e60a15bc28U, 0x2f22ba21b2d2e1c9U, 0xbd0ddbcef71a2edeU, 0xbb293e0fe51438d2U,
  0x5f004d2ad5b5d2b8U, 0x3bf627e0bec80bbcU, 0xa72dc7f4fa15ee03U, 0xfd06f809f425f7eeU,
  0x1df0f301042f0015U, 0xd6f769350311e10dU, 0xfe1426e911cced0bU, 0xe0f9d67fe2e60c0fU,
  0x1eecc82ff2f8a5dcU, 0x14ef0119eadfcdbdU, 0xe3b2c5ea2cd9cebeU, 0xd2f6df18be07e732U,
  0xbc0e3514f7daeddfU, 0x41fff8d22f06031dU, 0xdf22ff1a28fd21d2U, 0xd9e52c1734d0d9ebU,
  0x1220f3dfcb09d0d0U, 0xf2370bfbc8e62b1cU, 0xc50b2f0bcb298119U, 0xfce0ecf3c10fbb7U,
  0xb3d90de5100222abU, 0x400ce3fcf3344200U, 0xf5c22efdf70af911U, 0xcdcbffda3523201dU,
  0xe7d3021a35fa37ebU, 0xaf4acdc50b1fd3dbU, 0x1330a701cfc34028U, 0xc67f620931c13193U,
  0xe1bfc824274fc3c0U, 0xc9f0a6a8fd2b57e7U, 0xb34ca8924c0821eeU, 0x98ec1f88c43dc154U,
  0x29d83b0ce1cde125U, 0xeb378f2a2efa1f9bU, 0x4ace4f19e917d80cU, 0x39aa4c39d1633c0fU,
  0xe2d906dffa9aa9dfU, 0xd9a3f3144bbdc527U, 0xbd3906b6df163456U, 0x678802bf4a0418d3U,
  0x46d0fdc0ddcf87bcU, 0x99ab36f7c775fd5bU, 0xe32c08627306e1f7U, 0x8a7266d6c122ff51U,
  0x97032688c3f5a0beU, 0xabcd8560cfa2ad97U, 0xee945e9097868cbbU, 0xe9b27f640afb3693U,
  0x561068cdf4dc2bb8U, 0xe4afbd867e615d12U, 0xb00d128a6d58c5b8U, 0xa401268c471d09e4U,
  0xc8a13d1e3e23d6c0U, 0x141a2a0c4339b45cU, 0xcc05cdaf14ec81d3U, 0x49d149dcedc8c0abU,
  0xd3f425fdc9d1ecd5U, 0xddca17b8061aceecU, 0xc7bc31b9ebf1dec7U, 0xc1f7b2dae13412bfU,
  0x2633d926d8110b1dU, 0xdef520ee033d0fb0U, 0x4fabfee2a34f508U, 0x25f5dcaf2417ad1fU,
  0xeb08b3cddcf2c647U, 0xb3e841ca49ec4852U, 0xd22c0c20c04e054aU, 0x6c231e353edb2152U,
  0x38e917172d6b2a54U, 0x391d23b313f470e5U, 0x97eb9e44012dbdbfU, 0x81c53a90bbc6022aU,
  0x952fe846f74bc5f0U, 0xa4a421e612cd290bU, 0xf53c43670cc6260eU, 0x4ccfbca93db054cfU,
  0x4ebc2ae15bd855fdU, 0x781e6d4df1bdc14U, 0x4dcc7d7030d25fdU, 0x22301eedc5041b0eU,
  0xf3f6de03f5311405U, 0xf315fe4428de37dcU, 0xd7d5fbf7f3fdd8f2U, 0xd8f99b0e02f5042dU,
  0x6e0fed0a428f2d0U, 0x1ecdc2d601f0f31eU, 0xe62a21e1feeb0afeU, 0x250ff1c939badeedU,
  0xf21913e422e5c715U, 0xc12b05af10e3022bU, 0xeaf2f881cdc2c7d9U, 0xfafb4ad72531fc00U,
  0xbdc92cc933e6ffd3U, 0xde07f62924402fe8U, 0x3b1825d1d5171deeU, 0xf2f414e70af409b5U,
  0xf43ccf163b19251fU, 0x443629b5e50c18e7U, 0x18dc030e1bd61308U, 0xfb30ec2e1244d1feU,
  0xc5ffdfe9cadbc503U, 0xdee8e14028421519U, 0xef2318f4bc2325d5U, 0x1124139e35f9ba0cU,
  0xcd252f300e5291ccU, 0xefc402de13ca2b3dU, 0x1009ade909000ef3U, 0x3115c1ef31ccd63dU,
  0xbee7f83dfbe3c3feU, 0x2238dec081f9c80fU, 0x16e8eb051505e6beU, 0xdef4bff318bc0824U,
  0xe1df2cdcdae8d31bU, 0x26fac8191931222eU, 0x284bba0ef52a1a30U, 0x103635c60785f9eeU,
  0xd0eaff2ec539f5c8U, 0xde403c1f282212bfU, 0x1ff12eef062c88f9U, 0xd1d5b6d2e017cedaU,
  0xdb17b20e343532e1U, 0x5eb19ff170128ccU, 0xd42521270dbae6e4U, 0xede401b932171ee7U,
  0xc3e5f944f5eb4b05U, 0xb3d081e0edecda28U, 0xe1f8c115da0dc42eU, 0x9518e944db5de818U,
  0x314f27fee4cb1f28U, 0xe055340fc957eb01U, 0xbc4919cd44d51b03U, 0xd117af0f10dfc606U,
  0xc3020136ff1ef007U, 0xef07a733f4f2f635U, 0xd624f3c0da2be502U, 0xe0007d1c3e502ceU,
  0xc445021fb2b9434fU, 0x81cae2cc04c443eaU, 0x1c36eff538d538dcU, 0x2d19cba91ee10f33U,
  0xd0bede27303ccd41U, 0x347fe21fe00f213dU, 0x11f7f0b0f621ded5U, 0xb205ec2af527e339U,
  0xb9fc35b73f23d1e9U, 0xccce03d8cf273513U, 0xfce0d51c0add1e15U, 0x531e4fcb3bbd344U,
  0xc82e1d30df3924e5U, 0xd7d5f6dcdd203613U, 0x9cc052adce8e2e3U, 0x3f3c10bad5ec37ceU,
  0xf014e85bda4802b2U, 0xc656070e23ba9df7U, 0x48a54ead0e99ed8U, 0x3bb4d1f2c3b5484aU,
  0x2ebc08ab55e71d6aU, 0xd4d35fd5814b40a0U, 0xe72d1cf0ae60a6bcU, 0xfeda38caa3e7a4d1U,
  0x92caeaf247ddd4edU, 0xc2581f4da500ebf6U, 0x7bfd8d214b5e8a0U, 0xfbe753d5a8f0b551U,
  0xda1ad830a996b949U, 0xfecc3f810cdbd6e4U, 0x51f0493311df48cdU, 0x1d00f2f138dfedcbU,
  0xf81e14d414f195eeU, 0xf42019d4c5eee7dbU, 0xcc251c222a35f707U, 0xbfa03d345e13239U,
  0x3cde0a32fa2e30caU, 0xe6f2320a35bc50b3U, 0xf004f43213c4c2e1U, 0xa1f1012149cb0eb9U,
  0x2cabaff502c5d3eeU, 0xb202b2e903cd3c22U, 0x425534ed472210f4U, 0xf5112a2cbd1a97b1U,
  0xb0f77a08cd18261aU, 0x1bb8b336ceff3ea4U, 0x373de44f1ffefb32U, 0x10f1da460f00fadfU,
  0x15e1b229feb313e6U, 0xe3c928bbe8c73614U, 0x8e2bdf5adb0f154U, 0xd2de4f36023a4721U,
  0x2f0125b17f7cded8U, 0xfce8b33b0e144519U, 0x2c2b13e3a74fc843U, 0x16f0e4111d111eeaU,
  0xb7a09f11d0f2f8bdU, 0xf2d8aadff2c7dfa9U, 0x12cef01dd907f554U, 0x81f6163fdad00904U,
  0x2efa41bd26fbd836U, 0xbe3739459c4cf0c3U, 0xffc7e73bb4b8e3cdU, 0x24c404e5d441d339U,
  0xe5fe41f5cb2ad5f6U, 0x29f916e0c406c6b6U, 0xf932afeebf1007efU, 0xa8000ca8e44f9e62U,
  0x3e64f796897c1c69U, 0xdddff713f53f9fe5U, 0xa1f4042115f9961dU, 0x263844fb01d15cc8U,
  0xdc980572eba6f998U, 0x9cb443c4d7528a53U, 0xab63f7e9c02c37d7U, 0x175f4a2eedc7f60bU,
  0xf4a2f247b931df1cU, 0x2d8faa95ea667fb2U, 0x6142ea2befd0f34fU, 0xc4c0d4f034482124U,
  0xe7fa89f842e236efU, 0xa0f3819c5a94adaeU, 0x4e44bc3a29f40fceU, 0x10f6baeefd0292a3U,
  0xb6cef904e1e1b6d7U, 0xfbc101d0d196d9acU, 0x29d33600f52cc2d1U, 0x9e1ef316f9029dc0U,
  0x5aaf52b4d7b2ee2cU, 0xc482a0d2a0451f18U, 0xe4a1e40eddcd9eb3U, 0x390bb4d8aea7e0f4U,
  0x4506e3160b0eeb5aU, 0xf4a755b581151a14U, 0x423d65c8d8fdbdccU, 0x25eff1da3eaadeeeU,
  0x5845dbd0b40aa01cU, 0xebeb0ff1c2eca823U, 0xb9f3cac665c7a5b5U, 0x1d57b19e3b972818U,
  0x57b7d2f220ec1648U, 0x9c9bf9c7af891c5cU, 0x5b1d18c74255e1b2U, 0x36272af3ea0b11a3U,
  0xcf44040e20ad0d05U, 0xdaddea3417b9d334U, 0x34e4b12c28bdd328U, 0x331df42b50bc2911U,
  0xf3d5bcd22b383568U, 0x3825e801259ac0a0U, 0x345e707f330af12U, 0x24cc07013a36f2b6U,
  0x15504a14baf2b2bfU, 0x51f8050e482fc333U, 0xd17f3fdf3b0313c3U, 0xda4205291e4aaf21U,
  0x10300b3c24a33702U, 0xd89fc6caa81dc738U, 0x1430cebad33cb9ebU, 0xa504ba31dfc9f9fbU,
  0xe42c283fcfc29941U, 0x15d03002bef1e356U, 0x6baf32bd4c0df42U, 0x4ee801fc73b5c43fU,
  0x36512fde09a6c713U, 0xb1073ad69aa49d58U, 0x9ed2d219ae08e418U, 0xb5015c11f87f5fd4U,
  0xedb24effddccdc5U, 0x35c8d35b05d00431U, 0x20e4ee1b3ee11452U, 0xf406ca2ff6b2bee1U,
  0xf6182cc30bfce4e8U, 0xb527260e4585b307U, 0x18fbe8e9e3091b34U, 0x1739e67fe4ca3c2fU,
  0x38301df1b3fbd3f0U, 0xfdd9f60dee0a1206U, 0xff5cbbc0391c3a2cU, 0xf0293d1ab6d014dcU,
  0xf8ea372b9c450f5bU, 0x3d19c1fff1aebd0eU, 0xd0119d4ff0ebb42aU, 0xcceba932b83852b6U,
  0x45050e222209faf4U, 0xda7f3f15fac14a35U, 0x37b40206e3553f9dU, 0xefcac2f20fd001e8U,
  0x315b8f0d4f90cfcU, 0xe0e1bb1e1e4c1aebU, 0xc749dcd1e4e42ad7U, 0x3b22b2342cfbeb13U,
  0xf814443ab5272cdaU, 0xf0d6bd1f373dc4U, 0xc1b0e51edfffd0b2U, 0x1a280333b40624fbU,
  0xae2845d4d37fb547U, 0x34e3a5d24fb538fdU, 0x2929212206fc39bdU, 0xc2fdcc0a5aac94eU,
  0xcb51e50e1808e14cU, 0xd91ee8fac5fe4cc9U, 0x944121356d08a5d4U, 0xb5abc9d701a40ae5U,
  0x56d0b81a8de9cf98U, 0x1ba415ec062ad9ceU, 0x20213c3dffb013cU, 0x9bf84a962e9d1c3eU,
  0xa4521df6b6fabaa2U, 0xe9f5ace45c2b5deU, 0x9581f127b2e14a24U, 0xd64c150b2fbe0bcdU,
  0x580e4837a8292cdfU, 0xd0231a14dddf233cU, 0x1fc43bc91c23ccedU, 0x264236709fed50bU,
  0xdd5e314cc8b36816U, 0xa0a609d667b913ccU, 0x12e5ddc95632e511U, 0x1dc1d150ee05ecd7U,
  0x3938bcf5c34c2817U, 0x190bf12df9f93acbU, 0xf2c90cae3e3c7d0cU, 0x32fc19f1e0c2372bU,
  0x2612bc3feefdd32cU, 0x81f148092806d3ffU, 0xdfc229f43919f422U, 0xe4072c48f1fac9c8U,
  0x3affe122363035f0U, 0x18cccefc0423da0fU, 0x432525bf0123461cU, 0x267f064dfd2504adU,
  0xecb9fd2bd2c93788U, 0x1f094fdfbeead721U, 0x50e30804b800c7c8U, 0x2a034eee16140b2fU,
  0xeaffbc095333b82dU, 0x4b150726c118d7d2U, 0x421e3f123dfa1ea5U, 0xc7afbc23bff9e33bU,
  0xdfdd06f90a0621b5U, 0x4428f64031fc2024U, 0x483c121ce2cf6bebU, 0xdbb1c72d1625a6caU,
  0xe4b5c9c45128a20bU, 0x144e2ac15fef623eU, 0x2398ef0526e750cfU, 0xf92dffc8f4b0d7e1U,
  0x48ef4d1ad7f782dcU, 0x303c34b6195502d0U, 0xfc111da4c2ca4c5cU, 0xd49bcf0155ad32eU,
  0x81e9a636afac0a33U, 0x408b081ddbf61334U, 0xe1f18f35fb135011U, 0x4001aa5ef318dfb3U,
  0x60f800c7a2de362aU, 0x139907f540346316U, 0xbd1dd2ad4958145cU, 0xd8dbd0aff69d27a4U,
  0x4fd7a748ece54832U, 0x3ac84b1fffaea206U, 0x3cab8c1201b1d0ebU, 0x8cb3afe5612a56cdU,
  0xa02429e54e1e409cU, 0xea3fcd19172cca46U, 0xe54eaded5aa4c881U, 0x304257eef610b545U,
  0x38b49d23cabe4cd1U, 0xb6ca79f4b9d0f925U, 0xc39fbb320e8de1cfU, 0x8878fdb0a3f434a0U,
  0x9338d781fc3f1a43U, 0xc46b57117503eb40U, 0xa83dac8ac7583383U, 0x13b75acbfbce63caU,
  0x5a36af9e28ceab0eU, 0x3f13260937ff9081U, 0x9ebec6b7c814669aU, 0xfd21d3d5cd47feacU,
  0xf2e72697b3f38fd5U, 0x81c343ac5e379320U, 0xecab11a631bfad83U, 0x39e4a3ac1036d2eeU,
  0x3745680fb1a95b31U, 0x4615dfbaa4312c47U, 0x19d019d1993bddfeU, 0x13a6af30db0412feU,
  0x2bf41b33e25cd9e8U, 0xac3aea81f6460ab6U, 0xbbf9c03fb4c8231cU, 0xc2be4ccefd1d33c7U,
  0x420cb2084aa6f1d9U, 0xdaebcabdfb09204fU, 0xf74c0354c0dd2c2fU, 0xc52ab545c6ac0be2U,
  0x2ce0d22fe8d80bb2U, 0xb0063cb92544dcdaU, 0xe8ba2fe637d8caf1U, 0xc21f1d412836dfd0U,
  0xfaced85ed82aec49U, 0xf8bb47482525d9b8U, 0xd41b204cd511be04U, 0xb18262325d6cfb5U,
  0xde7fed3daaffd5ffU, 0x1ee9f2e80040bdffU, 0xb4baaf1dd9f5183eU, 0xd4edd5d6e9ca1abfU,
  0xeb493bf5c34ccd45U, 0xcff50418ecda5a9eU, 0x16e916a6be0e11c7U, 0x4c37367bd3b7d2feU,
  0x20b526212de2b0bbU, 0x3f3afbffc2df1f28U, 0xe281feb44a2106deU, 0xf03bc8ccb615b0b9U,
  0xc6cac1b0be0109f9U, 0x4ed3ebe500efd8cbU, 0xc7babd071a1eea1bU, 0xa8304121087fbed6U,
  0x9049560ed3b1c8bbU, 0xfaa7fcbbcfde0a21U, 0xc9bd1a2645dbeb3eU, 0xb74af3b0b5422666U,
  0xf0dbd8e502e04e29U, 0x32cbd31146e3260bU, 0xef5c3422f0ace41U, 0x4250f159fd0ef0f3U,
  0x3a952596f352d8edU, 0xba1947b056f4dc5fU, 0xfa35e3ee2f2ece18U, 0x1b88ff2489bc66a6U,
  0xed10260cf00028f3U, 0x41db0a8ca4cf62b8U, 0xe3b10ccda78150e2U, 0x275efa98220334ceU,
  0x9aeb18c70f1d7112U, 0xc3484523ed0eee8dU, 0x2af29f4bc9bbb55eU, 0x27bc578f3e3c8f93U,
  0x4e4916c197194be2U, 0xe5504cc2baedaf3eU, 0xb89f1b08bd9bc20U, 0x4b43cdde92900c0eU,
  0x47339dd1179ef1a1U, 0xde61a04265a6c207U, 0x2ee503b4deaffcc7U, 0xa70ad803eeee2058U,
  0xa4c9c71202a0b3bcU, 0x42614d9f3ec7a14fU, 0x9eb320ebe2cbe5f2U, 0x4c061e1dbb07273bU,
  0x2c2adaacd523ae04U, 0xeb29c5ed0d0323e4U, 0x814347feeb01f8bbU, 0xb1e27f23d1133f56U,
  0xc7dabcd637be2012U, 0x4afa3b4732fa27edU, 0x5752b0b0dcecdbd4U, 0xc6ed7fd50d271228U,
  0x46168a4c3adf10d1U, 0x59eaeb1bf10c40fdU, 0xc5a29d2331f6b3efU, 0x2c293c5312e2ac4bU,
  0x3b0f99ad22c90444U, 0x2143ec1c35d51bfbU, 0xf54441e036aa433dU, 0x25ba57364f14ccd1U,
  0x32e90c11cb2b05d8U, 0x37de1cbd5412e5c5U, 0x42dd032323b353bU, 0x2e1c4e3a1400e9d5U,
  0x808c5dbfc1154ebU, 0xd3fbf03e1412005U, 0xe506ef1028e80d19U, 0x8109dd17d4e7e630U,
  0x90007e92508d13fU, 0xf7001ed235320238U, 0x3d002f25ecc8e0d6U, 0xe6b1e3efc5eee5e3U,
  0xd1b38250815fb17U, 0xe2aaa073def13c3U, 0xdc45d531a04eb781U, 0x529f1354355ff905U,
  0xc39ef0571b324221U, 0x621fcdaf4b82bbbU, 0xa1bc18021ff83894U, 0xc243e736a446d564U,
  0x944b2623e8ff55a0U, 0xf75047b841ba95d1U, 0x47e96a9ab10445a8U, 0xfdaee39493f22effU,
  0xd9bec4fd11b90a5eU, 0xcd422b22c530dde9U, 0xcceb0c273d7f30d7U, 0xb3dedeb7bd26dedbU,
  0x4a30a3ded12fe347U, 0x3c4acb4425d31c46U, 0xbaff35e6201af899U, 0xfc22d742bc18011bU,
  0xcaf73bcfdaede91fU, 0xfdbdeefdd7fddfbeU, 0x1df2b5dd25fe9ee2U, 0xb73d13ef4b322ac1U,
  0xa83d554c1d23d83cU, 0xda39c2d1ebcfc405U, 0x59cb2af64390f81aU, 0xc5cdbaddd20cdcabU,
  0xfcad07dcc9d53335U, 0xd52146caf2cc5001U, 0xcd18a5489cd5d58eU, 0xb7cb21d9a442b3deU,
  0x1ea0a33f05b642e5U, 0x3b3fc322f832c9e3U, 0xd4cca4bef31cd1f8U, 0xc5d239e804e2eeb2U,
  0x1d334b904224c4d0U, 0xddfaefbf81bdb0bbU, 0x3ff9cd2624d6412dU, 0xc6f53414f311f437U,
  0x20e0ec23390ad7bbU, 0xc603f0c6bd162db8U, 0xc2c5c6b7bfea612aU, 0x1c3ccf37fec4de29U,
  0x2404d3eab81cc636U, 0xaec3d1dddbc3cbbU, 0xce25de2fbacd1042U, 0xb3fe5526d7daf0f7U,
  0xc643b538400af6d1U, 0x3f2dfdca81e90644U, 0xb33452cec2d54c35U, 0xe547d4f022e0d4b0U,
  0xedcfb8dd3f06e05aU, 0xd412f8e3f5d505c1U, 0xf21dd3b4e31350ecU, 0x20ec087fec45381aU,
  0x92228dbad203829U, 0xb0e80c501842a6ffU, 0xa9c6edb635d3c134U, 0xba0f08d8123c2bb8U,
  0x33d8f02ed935bc59U, 0xeb23f91cb61d43fdU, 0xd2390228d4df16d0U, 0x3f3a443e4eb8f4e0U,
  0xe9ef34ddc9cb3538U, 0xf32fec283d3214c6U, 0x2a3bead31e3618cfU, 0x3133c817d6fb7fffU,
  0x1720d73301dfcaccU, 0xfc22dbda01dedc11U, 0xec33dfc5c80d11f6U, 0xfc36f9edccbee4bcU,
  0xf20df44c2eec0accU, 0xededc4da283e4fbbU, 0x3c4e4d893dfed21U, 0x19c902dc270bca10U,
  0xabb74a24a6bc2dfbU, 0xf8f003c5fa956be9U, 0x1ab4bc66c9323b03U, 0x32d88ff96dfb52fcU,
  0xdbf9f2fe4baf5a48U, 0xf904c08eea2060f1U, 0xfb5d6e90431cdadaU, 0x7e90d81a0b6581feU,
  0x15a22a1c9225aea7U, 0xfc919c5992e7431aU, 0x40a9213051695930U, 0xac301ba2a28c9b5dU,
  0x205e948efcf2a5caU, 0x8192cf4d5deadd7aU, 0x36014c950c89540fU, 0x40c846c76796f696U,
  0xe40ff82576d5da22U, 0xae73c7bf5851de8eU, 0x1e61be76eb1d228aU, 0xee5232669c6bcd95U,
  0xa6486a35c33b22e7U, 0xfd996eb017af6af4U, 0xaadab050d5aa3ea1U, 0x5e9de0e16141a3b2U,
  0x3859d5dd401f90c0U, 0x1d38d4191c83dad2U, 0x18e83ed033adf736U, 0xcc3f7ee074a811bU,
  0xabc21c183d152607U, 0xd185c5c4ee64cafaU, 0xc73ccb12d9e5ffe9U, 0x118f49ffb6293712U,
  0xce0619dd17bdc847U, 0x94aff3004c2cb5a8U, 0x50f5bd39ecb95624U, 0xa1cb13d00ebe2451U,
  0xb8ffdaf016c25036U, 0xf98d3518d325cdc9U, 0xd01be0a2c47fd0abU, 0x3d1b415cc98dc3a0U,
  0xd7cd465257460635U, 0xee2e9004d243e24eU, 0x9763555240a7063dU, 0x16daee4ad8ab40a1U,
  0xc3a6eab8b7fe42d6U, 0xa4b8391cd9cbb73aU, 0xf623540395c7bb24U, 0x9f52c150c9f3a2eU,
  0x921ced2b09fe04cbU, 0xbc2ce0e712c1aae3U, 0x20813150b41dd848U, 0xe18ea14646961f0dU,
  0x4635fc5b4817da0eU, 0x19eb9e115babf610U, 0xb753ea17f25de68cU, 0x3546279ff240950fU,
  0x52843c98d5350540U, 0x185f8c3ec1e39205U, 0xa32bafec4f16bb2aU, 0x41eb18f39b28e32aU,
  0x8d3059ed11c0d3c6U, 0xf73120e84a50aea9U, 0xb920ea3f51a50ed9U, 0xc9c9fedfebcde6f4U,
  0x2fe43ab22607282bU, 0x3642831de192cecU, 0xfdf2f096212d9500U, 0x49c7012d14db48faU,
  0x2fcabfe53409ade7U, 0x449ff15ea2b4de2U, 0xf90be2db4dd4dab7U, 0xcec2dcbae92c12d7U,
  0xe44a31f604b309beU, 0xc6ea81d122bc34f9U, 0x4fac49c6c3fb24e4U, 0xf5150be6d79c0524U,
  0xfa3a45658b3f30dU, 0xcb9be8f8d8a4f342U, 0xeddb0c12ced8dd21U, 0xd61fa46516363d95U,
  0x35d4c1dea33f4b0fU, 0xb5bd91d56812ee1dU, 0x5110ee0e35e7b641U, 0xae44bac2cec73703U,
  0x5427d6ef5f3216e1U, 0x7f33c320f6fc24a0U, 0xf70bb810934f5229U, 0xf3c31a9a2cd462f3U,
  0x95a0b8fe8ce44342U, 0x591fc40f6432fdb7U, 0x53de9c46bb61c448U, 0xf1d5eae702caee81U,
  0x25b16a1104a9d3d7U, 0x264809ec37c5bd1eU, 0x9ed105816f45522fU, 0xae594158df34f541U,
  0xc257a59491e2d0cdU, 0xee0c62d39f6f5658U, 0x47453796fd5963faU, 0xa6d1a4512b4e3907U,
  0xcc31e91fccf2e2d9U, 0xd5f3b8ce0806bac7U, 0xfde134c9da24021aU, 0xeae1191e0ecee1f8U,
  0xbee3c7fdbbe7e97cU, 0xbb10e6d229e3f219U, 0x23c181606b7e1c4U, 0x24e6f0267f23f0c2U,
  0xf3d70cce2cbbe6d2U, 0x4d0bf12deb4020eeU, 0xedbf18f9242043c4U, 0xb8c712fc1851081bU,
  0x65a80cc8f915dfd1U, 0xd567d1e7d16e3d2fU, 0xa72cd2e6f5f004cdU, 0x1990a34ee7e7c1d6U,
  0xb764fccaf9a120eeU, 0xcb491746f4e65edeU, 0x43da2a66ac824156U, 0xbb68ecdea4e3f521U,
  0x55faf19523603c5eU, 0xef172cdd00bf45d5U, 0xc9874afaf5ab9de6U, 0xc27f5e90c2eee51U,
  0xd74d81ff34f1f404U, 0xe0ec0caba1c2c9a7U, 0xf5240cef0ce9591aU, 0xfcc016a4afc6b1e2U,
  0x4f1f7c4fd9c245a4U, 0x3481f22802e50facU, 0x2a3df220ad0d5007U, 0x452610f1b765dd0dU,
  0xca342e5dd0d91ac2U, 0xd72b29a3a5ca0fe3U, 0xd70121d7fbaa2825U, 0xbd2b9e96243e094dU,
  0x194e351f3acbdfd8U, 0x17fc3ffce435b4cdU, 0x444cddf20a0d1630U, 0x210f0abc4a21e741U,
  0xfc293d35ecd41bbcU, 0x39a6d2c6e419c737U, 0xb346ce2b4338b49cU, 0xce5a9c3aa581b2bcU,
  0xd7bf359f0fee221aU, 0x29fd40ce33483ee9U, 0xa3f54438c9d0e642U, 0xcdfffb3b07f11238U,
  0xec46f93fbe01b2a7U, 0x525fe4dbb2fc4d6U, 0x9d362e4add4232c9U, 0x3fbed3e1c8f43776U,
  0xe51ec953bcc3e1e9U, 0x3a3b1c054b43c3ecU, 0xb1238162adc61bdeU, 0x24c0e601a7e02634U,
  0xf111a4ca372a4fdfU, 0xec55271a93042f23U, 0x2ca70e24c0e6b2a7U, 0xaf53174b9d4d1ff9U,
  0x3a43b625c8fbedbaU, 0x1d04b8f9cd4550edU, 0xdf0e212dee35fdcU, 0x2c111be20f1435efU,
  0xfdc2b836243109e5U, 0xf1d5d33242209f1U, 0xcf3701cf30fc7ad2U, 0xda2ada18f3040710U,
  0x14190730f016c64aU, 0x81edf952c0c2da1aU, 0x2edd10f4203bf23aU, 0xdd2cf6f4e1f8c604U,
  0xe2d7da13f104090cU, 0x2fd0fceadc14cbd4U, 0xc1132b36fafc381dU, 0xee11bc5e91c3610U,
  0x9012eed01c4fc11U, 0x2f0b2ade0021ad33U, 0xf21c342410c60acbU, 0xd5bdcf0edb24bc03U,
  0xef151044fce41d36U, 0xfac12b091904e93aU, 0xdcd42ec78103e343U, 0x250d08fdc417d9f8U,
  0xf927f9e0eb301dc6U, 0xc1f32ec8ce14f5eeU, 0x28d6e4ee37a8a4d9U, 0xf5c3d129dcee1a09U,
  0xfc2dd0da1872183bU, 0xfcf4fe0214b9b8ccU, 0x28a2ded1e414f20aU, 0xd8e9153dce00eec2U,
  0x409f9f600561981U, 0x202cc23bc7a219cfU, 0x1b37b6d63204f9c7U, 0x240ce3ebd8dbea38U,
  0x2316e0f313efc20aU, 0xeb82e7df04dd16d9U, 0xf5123be0eedef040U, 0xc61f0dddd0fcdde2U,
  0x2253ecd312f94fa4U, 0x1002f74067c54941U, 0x6bcff93043e37700U, 0xa799b6245c0189c8U,
  0xf1f0c43150e7f72fU, 0xf5c369a0d43463b6U, 0x4aa74fddccf59350U, 0x2ddb98b878d00036U,
  0x3dfd292b41b3cdeU, 0x1f095950fbfc9522U, 0x3c58ebe5d7f5bd4eU, 0x53fd9e12307fca3aU,
  0xa4daffdddd56f9f9U, 0xdc35592b1100fa52U, 0xe13590e8e64ac6fbU, 0x5454d2dd280f2060U,
  0x1334f23051bde339U, 0x2cfe21c2f59d0fc0U, 0x3f06ca54e71552fdU, 0x2f1c19962a83c943U,
  0x655651f3ac0081e3U, 0x97ed9938de250346U, 0x27c71a9d14fc3e50U, 0x51ea018f39d1bf3U,
  0xfa1e2cab565f94fU, 0x47821b33bdb5270bU, 0xddc1e86029073c2bU, 0x199b35fc18e601ceU,
  0x11e7810d114434e9U, 0xcf3a4f6d3d929e3U, 0xc8e14d9b11d24435U, 0xd6ad0005044af918U,
  0xd1bf212c31f824f8U, 0xa226ecc91bb31410U, 0x20c429dd0cf127cdU, 0x49db07ff3adcb3e4U,
  0xf91147e3140d42f2U, 0xcb0fe1db432b332fU, 0x412df37f8b0fade5U, 0x2419f15afbcd8508U,
  0xd902f70933b7d2U, 0x166e28d4c82edee0U, 0xf425354ebc2a833U, 0xdcd743f5c9145887U,
  0x24fb3c433fedfdb5U, 0xc0d52d113b3ed108U, 0xdc30d627ae0eddd7U, 0x2a3f57f14d1a1b01U,
  0xe80341e4ab234effU, 0x4c49bae794b2bef4U, 0xe130d0fd513ac9d5U, 0xd0d14f4c0db3b3e1U,
  0x3cd7cdb0e12a13e0U, 0x10d37fcd33281f4dU, 0x31ec662509ba32c7U, 0xc5fcc002affdddeU,
  0xaa0e3956aec1bfdbU, 0xe5b34c58d3583a30U, 0x43dabaf728151bf8U, 0xf2e902572e44cfe9U,
  0x9629fe5b11f839fbU, 0xbe3261bd08cfd7a8U, 0xd9cae4fdfcbfcdfeU, 0x4e279fa920b19957U,
  0x4431c9ba0dbe1de4U, 0x34f71e266023c849U, 0x20bfea23bf29f9daU, 0xb90ea440c88100aaU,
  0xcbe427b1f4ca3ad8U, 0xe024c2eefcf81e1dU, 0x524e620cae572a29U, 0x1563de2e4f8efceU,
  0xa23d05f2dd100c4fU, 0x19dc12c31eef1ce0U, 0x542eaebd52ffd8dcU, 0xef444f3d2bd6b82cU,
  0x325204427cabc0aU, 0x22c60f11002df5b9U, 0x49cab3f0fc504539U, 0xbf37f0d04007d6b6U,
  0x1d511f33d14e15c0U, 0xeb2201c3fcd13c09U, 0xa12474e2ee5c4aaU, 0xfbf3c9facef7de28U,
  0x8eb2d4e2ad937f2U, 0x43cee9e22ff63a33U, 0xd6bab43a27819a45U, 0xf7cdd229d6f7162aU,
  0xdec3c104dde037dbU, 0xeaea63d0f2af0d3fU, 0x1d2cd7ea3b11da22U, 0xf4e7df00f61b811bU,
  0x31c3be35c9bd16a8U, 0xd92a1ffc0a2a1f95U, 0x4408dd333e0946f0U, 0xd2340fcd09e00701U,
  0xd8202d0ccb33f012U, 0xc4043e0b00fc40e5U, 0xd955f73c48d700f2U, 0x1ce20b02e70b2ac0U,
  0x39879d216bf2a4f4U, 0x389ad32f2022c981U, 0x1222e5283966fac1U, 0xa7c717f8bc1e9972U,
  0x1a94fa1cc8bd0d7dU, 0xaa351a22f5d508d3U, 0x15b09eda995ba44aU, 0x57f9fbaa9edd163aU,
  0xc110f55aba5cc20fU, 0x4fc8c7ec9d9edcdfU, 0xd462380c436264b7U, 0xed08fb90a11bbde3U,
  0xe262d23d6399e3aU, 0xc607ef46fe9ffdc3U, 0x44b1d93332eed541U, 0x28d4071c0f144208U,
  0xa053492bfc40010U, 0xf9443f2719000116U, 0xb9de43c8dfc3d403U, 0xf4fa0e1a0b11d5dfU,
  0x30cfd546b1d6001cU, 0xcb1ef0262004ffbdU, 0xb933ba312336431bU, 0x70cebba810b31f3U,
  0xbfca0eea254833d8U, 0xf4c4852b97d4fa47U, 0xfe23af81f22b3012U, 0x98c61ebf367cc32dU,
  0xca2fefcaca465625U, 0x61270d26862407f3U, 0xbee9f810442fa159U, 0x3794a29cafe6aff5U,
  0xd0693049c12ff839U, 0x5d8293294fa65314U, 0x8ca0c17e864bdc8U, 0x9d668bc289e6a859U,
  0x23c47557c4c194e8U, 0x1a36bd0fbdfe16deU, 0xc26028ce1bcfb0d9U, 0xb7fb81c1c802f3afU,
  0xf5f72efa35ddf911U, 0xc70d36c0d748333fU, 0xda04b0b050c0eeeU, 0x3a360dbfd12c1134U,
  0x819f5e454ee8043eU, 0x351f19150dc0d2b9U, 0xdbdffdc356f7e0b8U, 0x28d05b5af6dae947U,
  0x47adcd181ac55646U, 0xa451c75cccbc5b0aU, 0x6d6e60c1528de28U, 0xf6331f15d937db50U,
  0x724031534fc8c2aU, 0xc62036cc2ccf352dU, 0x2c0adff6d93fa816U, 0x1a433166ea16ea4fU,
  0xf2f4212e0038f4daU, 0xf911dde3961a1702U, 0x3d21fae714141119U, 0xf9dbdb45ec2d2afcU,
  0xbb382aed21d1cf20U, 0x31cc2fd7ff0b942U, 0xd4274e042b092313U, 0xc403b613e8bb084cU,
  0xf8cde9ee21203c28U, 0xd436b8c5ce1017c6U, 0xbfe0ab3c153e1e39U, 0xe2b5e1e818f54fb2U,
  0x2e4904b2faf02d12U, 0x7fda00d2d7cdad4bU, 0xd117cdb2311df8bbU, 0x72dfdafd03b00e3U,
  0xda0318dfdbaf4c50U, 0xe630c5f50efab040U, 0xb8bee728fcc22fd2U, 0x71681b9a8d6e647U,
  0xb01f946daaf1d6f9U, 0xbf3943ade8dace20U, 0x59d92edf52f9ad5U, 0x4fe5aa55ade51f16U,
  0x2efb5426ee1f19e3U, 0xc1dfd218e2b21707U, 0x2c46b2a7f446e9f2U, 0xfb5e9a4563ac6e2U,
  0x2336c8d41934cbd2U, 0x602fad262241320dU, 0x440fac8ee52ffcaU, 0xeaf6f604e60ad505U,
  0xf2e60a27c8b4e6f4U, 0xe7f8c8df050df4ecU, 0x33fb31ece1dfd528U, 0x2540f7dc23e17f0eU,
  0x360a03d925f2cbebU, 0xf7e9f31ad1020d41U, 0xbfeb1d00010709f6U, 0x3d525f5110ffc18U,
  0x1227ff291a26f2ecU, 0xfff0d40ee227e5eeU, 0x5bd5cc1e9c19f804U, 0xfe230c0b2515e720U,
  0xf41e9da550d6d04aU, 0x1cb29705d6283f79U, 0xb9e95ff9e1c9e453U, 0xfbd182cfeaa70b1aU,
  0xbbf0e826191809daU, 0xe7b73b2bd64df329U, 0xd5faf7c4cbfc7f3cU, 0xb4dcbdef272d5940U,
  0xe8e2b8e11ef1c053U, 0xe300fe2120d0c77eU, 0xa7f3dc3d32fa15ebU, 0x332ba5c997090009U,
  0xfcbc1a39b3d3cac8U, 0x28e50b0e4e70c52dU, 0x41d27fd14cc7ad1aU, 0x22b20bff3ef53539U,
  0x35e5430711cfc01fU, 0xeb3fddebf1755981U, 0x2a46d1b4d8e136c6U, 0x233ae2b04d4c3749U,
  0xe718cbce1a03dbebU, 0x2ad4f699b249ba1aU, 0xe6384b1a313237e3U, 0xeadb2dda2ed8bcccU,
  0xc4e5e0241c08f1ebU, 0xa9e212254243c4cfU, 0xec0d813314c36a88U, 0x5043aaed3830fcecU,
  0xb2bdca5d6ceeebccU, 0xdb8365b1f8a28ea2U, 0x3b8d1a6b2ec1b7e6U, 0xd19a91e4efdc4c60U,
  0xf4aea048b4f6cbb8U, 0xf2c5ccd9ef529da1U, 0xfcbc9467da99c6f1U, 0xd755eeed1fd6dd31U,
  0xdc24c3f08caa6abU, 0x1704b4bbdeaeddc8U, 0x57f059dce92401edU, 0xa036cb1b37391936U,
  0xb1d094fbcbe0a060U, 0x15c622dacc307f48U, 0x2df95dc9b8fab40cU, 0xf32a2efa38cd19b5U,
  0xb4c3bfe14916f99eU, 0xdd4323ed05379d3aU, 0x1cdcaaefb8d83db3U, 0xb10c81bc5c3072dU,
  0xb66ea1bee620d0c2U, 0xbdf5e625a40458ddU, 0xd7c62b079d97fd11U, 0x3460eda9b226cf6U,
  0x5669e76130ec335fU, 0xdc1def57474ad1a0U, 0x6e3c26b6c3e534ecU, 0x54664b1f398a702U,
  0xa9b85de74e6ea4a5U, 0xe20081edbbdccf17U, 0xc863c33fcbac8f08U, 0xd1c83343bccafd36U,
  0xe5fbe55db30cddf2U, 0xe2ea4cd86796c49cU, 0xd3b305cb2245dc4cU, 0xa9fde84c1760f500U,
  0x363ff8010d1b2acaU, 0x2d95d6aebf07a23aU, 0x8a2eead1347ccf1U, 0xe832a5fc2dd0bd53U,
  0x2c68a2a3650600f4U, 0x59b0377fb11b11b1U, 0x55a122270c4ab309U, 0xe855551aa73920beU,
  0xc21499b149303666U, 0xc04901cfd1ec1f5cU, 0xe5deea25763fa1bU, 0xca68b8904c0c8e2dU,
  0x2df3b7d953b65409U, 0x5586fcb187491dcbU, 0x6b4cf7f142bfdfbeU, 0x4d3d3440f2448b5bU,
  0xe229bb3eedccf08eU, 0xe910f243bb4ab36fU, 0x32cfc0e49bde2db6U, 0x1ddf31311db04305U,
  0xa7fcdaa0cacdf7f1U, 0x190aeefece810544U, 0xf211efa78761373cU, 0x1040cfd66e83e92fU,
  0x18ab3179ab46b6e1U, 0xb1e5812048f5110cU, 0xb536e11c08d4ac58U, 0xd2262c4ab4f3a340U,
  0x9b2d4b2ffceacaa8U, 0x12eacfc30f01ac1aU, 0xecc7533dee9e34d2U, 0xd1231519a7aca9dbU,
  0xe011c8db501611c2U, 0xf4d8c9c48e4eb9e2U, 0x30196ecefd339d1cU, 0x31ef52e435116aa5U,
  0x30f02ccb2ddee6fbU, 0x34e0f3dfd3cb137fU, 0xe8dd0bdbceef9716U, 0x1125af32d3c2bd34U,
  0xe809bd5003170fe3U, 0xcc24ff1deb1a243bU, 0x27cfbd26fdcc3d32U, 0xecdc0c3ff11d460eU,
  0xfdeb13d402e11a11U, 0xee06f2e5f9d0e525U, 0xb0fdf3ebcb02c9eeU, 0x8ecf2eb0a601fffU,
  0xd013943d3d5d424U, 0x8f7e6471794f702U, 0x49130f3b3c50ffeU, 0xb3fd37e3d3e937cdU,
  0x2e43382f1145ccf4U, 0x15cbf31c11353134U, 0xe9ec51cdc239d481U, 0xab292ec6c8e8ea43U,
  0x3c443f370c3c1fceU, 0xb20012ffb30b4c14U, 0x27c5f6afc6c1c90fU, 0x810da5271919bd23U,
  0x1b1e0818c336c7eeU, 0xf8f5e01718defbU, 0xf24630e4eefc3728U, 0xcb37cf20312e8dd3U,
  0x2ee06a2cf4120a01U, 0xf300e4f104e4fe02U, 0xf7e20f2d2df4291fU, 0xfbc5fd201a09202bU,
  0xf1f1e3e9b7113440U, 0xe1b1ee80acbfce3U, 0xcf0132d819080a0aU, 0x8111160d0df00e1bU,
  0xf41e34095a02c418U, 0x98cfb506d5130c0eU, 0xc2e08bdda32a0cfU, 0x4123bbe7e0a6055aU,
  0x42311a9107da3f66U, 0xff664397f92633a2U, 0xd7156331124cbb2eU, 0xdc3ca2c243eb8ea6U,
  0x814fd669dd38962U, 0xf1342ae9c05b8126U, 0xa570e9af2069e6f6U, 0xb1dafb8649e33348U,
  0x9b9808dfbc0923c4U, 0xe49ba6114bfd11b3U, 0xccdbf7e0c4ffdd21U, 0xe11c5bdef53435edU,
  0x1be9bf260aea13f3U, 0x311f8ab4e9cae0e9U, 0xbbcec9ca2a093fb5U, 0xb6fcf6e222f0d7e2U,
  0x273e4b3ea948dfc1U, 0x144643d849f934ccU, 0xefdf23534bedb2bU, 0x3745e50cc043e0bdU,
  0x30dfe72ba1fb1453U, 0xf140edfaf8eee224U, 0x2d36cf0bb4fb8140U, 0xc8f4d5c651582307U,
  0xcff86dd7c517e3bcU, 0x32bc3a2a022e3849U, 0x34bf3856df018df8U, 0xd6d3be28397f55c7U,
  0xf4fe28ea2edb2502U, 0x214ab6ee44c642f8U, 0x91c293dddd0d640U, 0x28242eac3c450cbdU,
  0xebf440d1e2c8d91fU, 0x84b9d8f24ce103d0U, 0xe6a40531d01947ceU, 0x9129cecb0ac83032U,
  0xdecf15aef3020a38U, 0x359fabff3d2f6ebU, 0xf6ff4631dacaa66eU, 0xb905d36ce14f4297U,
  0x4dfa110ed1d34d04U, 0xb625d14d1a21ed29U, 0xc7c09bf5bceab47fU, 0xc5530be33f2b3028U,
  0xbd1acde9eacbb62bU, 0xff041e6fc3ff4c9U, 0xc65736f2a7e67da9U, 0xc3e3f63c475ce1eeU,
  0xd0bb38ae96b4cee2U, 0xe3122cdfc67ff02U, 0xd212ddbef521729U, 0x1c36e5f808d47fe5U,
  0x311d3d0fefcfd6e4U, 0xd9e8c8f5df0b1105U, 0x652af9d1b524d306U, 0xc4070d3422dbee1dU,
  0xe803125744fe29baU, 0x3cd32e3efd1fc70dU, 0xf6f6b13cdf2038edU, 0x1beef4f61d49d20fU,
  0xefcd6f32fe729acU, 0x42112003cd45c6e6U, 0x4036dcf0361eb920U, 0xe7f17fdc143c0933U,
  0x12aecd0e803aa46U, 0xee4444420ef64631U, 0xcfd917254108160eU, 0xef45032694b82310U,
  0x4ebc1fe70fe349d2U, 0xdad81907bfd50432U, 0xe4d7ff3a1313d0e4U, 0x521bd7fdf9e6091aU,
  0x31521d8bef1002fU, 0xdbd727154cdfba21U, 0xd3d3813016f8b6e4U, 0xe53c24062b3850c1U,
  0xa436fad4372c48ccU, 0xa1c2fcd03450cd3fU, 0xa44cae4b37470535U, 0x1f2e8f30210a403U,
  0xe05cb0946d5dfcbU, 0xbc4d3209a83ff71bU, 0x10174f332cf2e1deU, 0xd9b48f30cacb1d30U,
  0x7ffc20c23cef2a3U, 0xee5becbae6f2c8c4U, 0x3b11f7f9c9013aa8U, 0x4386b0db81e20251U,
  0x46b7000022d81ae8U, 0x49e0580512b9cc16U, 0xdfaa02a5b53dbccfU, 0xee36e9334dc13928U,
  0x49351e27b3d11292U, 0xbd4310e141104ee0U, 0xefb8bf36ff4f09e3U, 0x3647253e4ac9d7faU,
  0xb5b7e3b8c5ee3f00U, 0x30acc409fafdfcedU, 0x1c45e4d026751a19U, 0x2a0b5826d50b09a1U,
  0xd9fffcfa0cf519a7U, 0xf2bb23f3afa481b7U, 0x47c50e09df42dc07U, 0x3ab2fdb64ac5b6a7U,
  0xb5ab264747eaae0cU, 0xb21bc4e7ceb5c0f8U, 0x35e6f82735da364dU, 0xcaea1c283648b3bdU,
  0xadcf5a3e2425f4d2U, 0xc92e120fc8245becU, 0x28a92ab5492a1ee3U, 0xc143dfca3d3bbc7fU,
  0xc81a0afb02d5c501U, 0xc3d408ffef1af650U, 0x25fe92d9c7d032c2U, 0xc13dfb2cd900d9efU,
  0x37182546e53cc8dfU, 0x1104afca20d853eeU, 0xd0c3c1f5e7fe03f0U, 0x2aeab93ae84d0b29U,
  0xbb08c42b152732b5U, 0xfae50e09286f14f6U, 0xd4c22bddb611ea35U, 0x2524e050e8f34e3cU,
  0xe6e1fe56203e101aU, 0xce0e983ae7d6f1a2U, 0xd1515f16d3b781cdU, 0xc5f8a263fa37f9f7U,
  0xc3c0acb6c2fa3bcbU, 0x3b2e1e52391e16fbU, 0xffbcdef70a4eee02U, 0x2e2e26b43051b0eU,
  0xf4231bbed6136031U, 0xbe5975c6414a04c5U, 0x3a70a0f2decb612fU, 0xfdbb041dd0154a2fU,
  0xee594602e6fe1a15U, 0x71adece5431d0e9U, 0xcc1b7f2220494fe4U, 0xd8b4e541cb25213dU,
  0x41f3380f08ddfd55U, 0xb14dffd1cdb0acd4U, 0x5c23c512a2c2c1bU, 0x1ccc0efb32aee3caU,
  0xd1b7f643f5471bcaU, 0xc1e52d212130493bU, 0x11b33bce6fa1ca4eU, 0xb3d8131cc8f1ad43U,
  0xa5b62740008160f8U, 0x8778bfd93905e571U, 0x2e225e98b6a20cd8U, 0xf10e30fc9a22b9f5U,
  0xabfabfaef0700c31U, 0x8322edddee2bbeabU, 0xe55a22f224c8295bU, 0xff179ec743b3df1aU,
  0x1c680393d3b693c3U, 0x42029d9728c452baU, 0x1049dce2575d99e6U, 0xbcd113ad36e453e7U,
  0xa9f6f52d291a0720U, 0x59a36bb808c43e8bU, 0x921f655c24aacdecU, 0xedfab3aa154aa10eU,
  0x54674911e121b81dU, 0x49d5afdce01d3e5cU, 0x58c5db1453235555U, 0x256984a3c7e7969fU,
  0xef5e004de7671d89U, 0x99f61a01cca66081U, 0xcaacf0e6199bce33U, 0x681fe5fdd6d98d50U,
  0xcc3c0feef1de4326U, 0x3d0ecfbe5c6e03eU, 0xf41f813635664fd1U, 0xf7ec16e31544222dU,
  0xfb02defbe8da7a1eU, 0xf2da2a373ab1e313U, 0x1725dd1cf5f71069U, 0x85363b191113ff17U,
  0x29fd36e708e92028U, 0xc2d039154b3afdd7U, 0x23ddde35cc32ff36U, 0x6ceed7148823fee8U,
  0x3ece06020ee32ee4U, 0x992ca2d35cffa03aU, 0x30c1f2cf12cf6a5U, 0x59923ddaf0259b66U,
  0xe6026d50060d31fcU, 0x9b3d1cf23fef3f3U, 0x2a586b7fef05430aU, 0x211ce2527d6959dU,
  0xd7dde5cb2fa1dcd1U, 0x979fe32ace53f840U, 0xe0a027d8c1c7428aU, 0x4ecbb94d1a28e3caU,
  0x12501b44ac2d17b5U, 0x98e6b7e74e3bdb65U, 0xffac27f8ff5c3998U, 0xddd346070741383eU,
  0xf8a2afc91ff5b03bU, 0x189e0cd12e232838U, 0x6b7339ec3014af4U, 0xf8598e47d237a7a8U,
  0xd86b00a8d2e8a70bU, 0x37f138edf4d8d7a2U, 0x183b17078cebbb00U, 0x2136d4d7029cb719U,
  0x7f57fde66d53a13U, 0xb639ab4c37a6d048U, 0xe32fac62d34a50d6U, 0x612422e60ef7abdaU,
  0x39b710f7f0c3b7dcU, 0xd802cc2703ee9aa1U, 0xb78110ffefeb5a1cU, 0x27c7adf6f7fac432U,
  0xa4f8a8bc14f440a7U, 0x47e5a0333da5dafdU, 0xa4a511bd1428de08U, 0xf3ffe4d8f79ed3baU,
  0xb347d7d909e4e02bU, 0xc0cccbc6e6711f3fU, 0xcc052b20d9efd55eU, 0x3fe3b3b9ebfa17b0U,
  0x13f54ebc2dd73818U, 0xef30b5ccde14b91dU, 0x1bfecaebf6c40039U, 0x2b3303da47264fd5U,
  0x8c0937b74e4610e1U, 0x11422cf243eceaecU, 0x4bc51617301cd5deU, 0xfdb6d6c8333631e8U,
  0xcf0c2549ba2dd9b3U, 0xe8dcab3a46f1f3f2U, 0xfe081ceb1af30c3U, 0x2b2147a096d907b3U,
  0x1c368f32252669b2U, 0xfe996de08bce2a5dU, 0xc7c6bdd26fa2cd20U, 0x68962885cdca9bfdU,
  0x5c0e45093751951fU, 0x6399b172a252b0acU, 0x35074a5ac90ea43dU, 0x45164e41e190e439U,
  0xa9c092bd4e14f89aU, 0xc8399486171ecee6U, 0x7a81be0810932dbU, 0xe5e9db4727008d2fU,
  0x281b176db981d41dU, 0x29432cfb22f8a348U, 0x3bdde4e1b824bdb5U, 0xd31810f7ed231fb4U,
  0xaab33a01ee099d05U, 0xe2c617090becca51U, 0xed02b77619009825U, 0xfe134823da1b3211U,
  0xc2ebe43edfe8e7bdU, 0xcef52a1c0515e6f2U, 0xc053ee132fb0d2e7U, 0xfe3fef324948c6d2U,
  0x12932dc5fada05f1U, 0xda42db60e7bfa6eaU, 0x4c3dbac5b78818beU, 0x3029d441ec10948aU,
  0xfd25dae12efd37d4U, 0x38185995bf59aff9U, 0xbd81215d3b4ccca3U, 0xffc4c6a23c1bb091U,
  0x13389064af9c5b8U, 0xbae4ff008e123740U, 0x9df632cf1d86d029U, 0xccdf7c7500e0cd7U,
  0xe3253599d81d113cU, 0x81075032a4fbae04U, 0x1b3f321500a8e80eU, 0xd22903ed3de75027U,
  0x242b2cb944a617bdU, 0x2edd5220e2fec2ddU, 0xd8240edef5c7f1d5U, 0xdfe5f0becb24050cU,
  0x44f8d3c68bc8e4ddU, 0xed8f22727c91915U, 0xa40710c9de28b8ccU, 0x252626e2de12dfdcU,
  0xcfd2a5b5350cb49dU, 0xc48d5a56bfc5900bU, 0xcae0e610b4f968c6U, 0x76a35a253029b698U,
  0x963ea854475c4b9dU, 0x4c8105ed8c00b620U, 0xb72f55f3e0b394d2U, 0x59f305249b10d345U,
  0x44e0da0e33e3033eU, 0x2b98ac90569822cfU, 0x36ecf4611d060a9fU, 0xc65149440fbf41f9U,
  0x20b3018a30cef1d5U, 0xedc32be5bfdb386fU, 0xd1eeb6db5d73ddd2U, 0x81c408e1f6b3e1deU,
  0xfe438b22cc812e5U, 0x6ffe7bf30f7e445U, 0xe5d10aeee4512606U, 0x124d1b163aaceddcU,
  0xb33b15e6021ee61aU, 0xcf4ac6e2b644fc34U, 0x3038121c0b270216U, 0xf1ffe08837cb3db6U,
  0xa0513df957f901f5U, 0xc8d41d2cf62814b5U, 0xea04f0e5cffb0f00U, 0xb15cde338f7427fU,
  0xf20d302dddeac0e0U, 0xc2f5372d30d1e440U, 0xdff1da3004d4ea17U, 0xe9391d2902e04103U,
  0x4031bd151b3a022dU, 0x10d0d6082ed3ecfaU, 0x27343304da10cfbdU, 0x7da0bfa10132504U,
  0x9bc91e202bbfc40fU, 0xb7f53312363afcd3U, 0xc4f9e7c710d74c20U, 0xf9dc3920fbef26fbU,
  0xe432c334d7d925f5U, 0x18351de33ae2f729U, 0x15b6e1d7312609bdU, 0xbae3c3bbdb0410e3U,
  0x183023cedd2ceafeU, 0x811fefededd12811U, 0x370be4f6dd010becU, 0xc738f00f14ebeffcU,
  0xee10ee2ef91a0200U, 0x2f0bfad118c73decU, 0x3f1a1934dffc03daU, 0x24541fe5fedac6bbU,
  0x35cbddd8f205c45dU, 0xbcfe013100f202dbU, 0x1cfcfd0048c1e630U, 0x3a3d0b17def41feaU,
  0xf0d44703dcd6c102U, 0xe11dac0164f5c1cfU, 0xbd30ffe5d5222b0bU, 0xc0c7ef28b8c6e52bU,
  0xc8b8b83f2c26c3f0U, 0xed073423d3de4106U, 0xfe112f2fe37f5304U, 0x24a3dfeb1d531eccU,
  0x14f3e84c3c5407e3U, 0x2a28532809058f47U, 0xe39ceb283ab2db3dU, 0x2ad42ae5c1ecbe19U,
  0xf40f15f80ffe0cdaU, 0xf6eb33102ea905deU, 0x173ac7b436f2a82aU, 0x46c2bbc816c2d3caU,
  0x842e8f1abb91ee9U, 0xe60b02af272e1a10U, 0xce497f23e9140106U, 0xd465eff5af13c4e6U,
  0xda3fb2bed044e4dfU, 0x5e50b7b148044041U, 0x1b03bafcc650d75dU, 0x3f058103b2c99551U,
  0x62af9436c86fd212U, 0xfd0bb0f1ad383834U, 0xdf9bc440e02ccaadU, 0x55b9a6fffe46e7f1U,
  0xe36329f42ba25831U, 0x389d51222da7d500U, 0xeea5e3d7feaece23U, 0xfa634ac20b7272adU,
  0xb9fb0628e3b8cbc2U, 0x12e84681c388e034U, 0xd04d19bd3fd56517U, 0xb3543e8da10f1f8U,
  0x38250dc84bff4f13U, 0x54e44bcb40f40b2fU, 0x330af7444e030237U, 0xf42b31ca420ed7d4U,
  0x5c0ea3b05d7152eU, 0xa2b815e149c435cdU, 0xbe49e124fc515605U, 0xdeacb4e544f2bd02U,
  0x4ad8bceb0eb1d5dbU, 0xe4d106d1bfd52fccU, 0x3ff3e2f3d6d5ed08U, 0x2b4e3ff207d99fd6U,
  0xe8de7f31f2073f28U, 0xc7eee43627500497U, 0x1131d33febf40d24U, 0x43f8da28b83c30cdU,
  0x21c01117a8c8f1dfU, 0x3afb35def4d71a05U, 0x15be0b2bbc2b1ad2U, 0xa2eaca19c6f6c3d5U,
  0x381221226ff0e430U, 0xccb9f3eee7e630cbU, 0xe5b642eea1a2b629U, 0xeebfa13f481e1070U,
  0xe1b797f12c33edc1U, 0x54f42e513501117U, 0x85acd0fb0f319059U, 0xe4ad9953f3f34364U,
  0xcbb8efce51b3ce05U, 0xb451b9b83e0d48fcU, 0x32d1152ee481e809U, 0xadb7c916254a5b43U,
  0xbf141ef68ccbbc0bU, 0xd38bd514dfb5dcf0U, 0xd1c59c28ae000c30U, 0xc61e9db6db16cbdbU,
  0x480bb32a3bfc05f7U, 0x51bb40bf3de8e518U, 0xbd5de2d5c822aa99U, 0xfdf73c7fbed2e9b4U,
  0xc91feb0633ad58beU, 0xc5c815cfa642172bU, 0xc739c1c8fa5422f3U, 0xb250221516d54d44U,
  0xe6af30c01708abdcU, 0xac28193a46c9a3f8U, 0x28bdcdd4b60f9832U, 0xc1d43b918b7edd1U,
  0xd51d2ef80ae24a1aU, 0x2ecdf411d2323cbeU, 0xd2f61ab80e3e90e8U, 0x5e6f9ff4ed7172cU,
  0xd50d030e1b30ccbbU, 0x41dde81105ca57f0U, 0x1e0a000c43fefff9U, 0x17fe0cd943de22e1U,
  0xd207c6e50b3ccd3aU, 0x20819231c948130cU, 0x7faaa40f61a023cU, 0xe8e0d9bb21f0ebddU,
  0xc0fddc5e71441d3cU, 0xdda9dfda3fc524e4U, 0x18cb903ffb01b440U, 0x8b400210c0307d6U,
  0xf2cf4ff4d0e1f169U, 0xbe219d36024c263dU, 0xc7b5e52bc9b0f4dcU, 0x4b6d80c41ebb2e9U,
  0x23ddc120731d46e1U, 0xcbebb40c0fecd1e6U, 0xcd283b2fa0f07f2aU, 0x68555c93f1402653U,
  0x2fe2102cec22a345U, 0x98cee22a1f10acd6U, 0xb5e2a7deeba294d1U, 0x1b41eee451378847U,
  0x24191e9e52649cceU, 0x21f1e4a9368123a2U, 0xc1485ec33ef9a521U, 0x9c95ee4f45fce229U,
  0x629e3bbbcda99b98U, 0x2cd3a8dfdc22c7d0U, 0x86c0d04ad754b224U, 0x31f30e3c12a6bfbU,
  0xf8e6b748d4002daaU, 0xfef09e5a47fcb123U, 0x520f0846b204f6a7U, 0xe03325f411a22317U,
  0xd4c51e621a2aa63eU, 0xddd706db18e3bbdfU, 0x20cbf1ac2fbd4f23U, 0x1f343eccb4464a21U,
  0xd74da7bee20e1efbU, 0xff206011f91efb4aU, 0x81d2b64c09c84604U, 0xc1c61251c44ac622U,
  0xcd90d2b526bbf5c0U, 0xeb56fa07e23feb45U, 0x29ce2f2ca0d44f7U, 0xfe7b044fa99e9e9U,
  0x2b3b453cb01f8a06U, 0xc6cf34a7de7befe6U, 0x55b629361f9bdfe2U, 0xd51b23eed2d4c8c2U,
  0xe3be4343fb0c121dU, 0x7f24dfebc00f32e0U, 0xa4eaf13ef7045601U, 0xf7e212d9e412c2e9U,
  0x28d1282a072bf22aU, 0xba9addd6c33f08fbU, 0xce6231bfa06c435U, 0xf8f13931afe40008U,
  0x290fe9043ec6e2f4U, 0xc8c7872a8efc4f0dU, 0x13fbf51381d03304U, 0xdfebbf03fcf62e47U,
  0xe511c31b01bffff5U, 0x9d093e040b410ef5U, 0x2eeb21d00b4aff70U, 0xfb0530c0adf302d4U,
  0x49fb2aeeeaf81148U, 0x330dc7be1cf5f1dbU, 0x22ab9d8af0d09df4U, 0x919fadb4de5501d8U,
  0x4ca58fa53b36a4caU, 0x3c4dee2819a9ddc9U, 0xa40f6801a9e4ed81U, 0x3fb63a60303594bcU,
  0x20295995c19b1de5U, 0x5c99b491460454d4U, 0x90d8b73643381922U, 0xfd8ea2e2c5501eeaU,
  0x522d73d39d34cfcU, 0xdbf061def83c61c4U, 0x9d24a430b9b7192cU, 0xf9f7fa9e1720d87fU,
  0x19a3e6e23f2a29ebU, 0x43ff4b4903d220fcU, 0xe8a2b608c53a03bbU, 0x31dfb9f1d90018b9U,
  0xea0645152b34cb18U, 0xbb312648e0c0f72fU, 0x4309bdb2eede3dc4U, 0xcddb0e4de9bfee21U,
  0xec03bb1cabacb324U, 0x8173336e8f051eaU, 0xa3d85edbb1300d49U, 0xa038552244c92506U,
  0x4be12ff11509b547U, 0xd855284923e804f1U, 0x9a2ed3fcba347fecU, 0xcc2032ddd2295713U,
  0xa7fa3458ed1849d8U, 0x9afb21bbaf413a4dU, 0xf527f200ad34a456U, 0x19c95c5c9b4bb75eU,
  0xd334e9edd75c552fU, 0xd45424a80f0d0d07U, 0xf102f3b3b9eeead5U, 0x2f13eb8e9cc0423U,
  0x3213df27a8d830bbU, 0x4c4f1efcffe3901U, 0xaf1f3eb3d5314524U, 0xc61c0addeeae1af8U,
  0x4592f2fee8da3db4U, 0xcaf891b82f483f23U, 0x28303ec4a941ffb8U, 0x1bd6a6e7c5ab08e4U,
  0xf73b20c7b5fbda1eU, 0xcf5fca05081dd87U, 0xc60ef6c84c3bec0dU, 0xca260b0bdefe7018U,
  0xb1f9ef69ddf311b9U, 0xea8124343047f33aU, 0x684f0e4efbb3a3ceU, 0x2ad263e0ee2dacf0U,
  0xc8589649479c8865U, 0xb7b7e50c21eacce5U, 0x2c4b2102e921dce4U, 0xb2485aff2363d5e1U,
  0xf0a8e6d7bee1d02fU, 0xd931eb44d720af4cU, 0xd0fc44382b079e4eU, 0xa715702f432242caU,
  0x527f1744c8ead6ddU, 0x2f2cc4ff4c31f852U, 0xfa2fe62fc4a326c7U, 0x806f50739f4f42cU,
  0xc055d2a82919dd19U, 0x8ff2299bdb2e4c3U, 0xd1ceb1275c111b15U, 0x474fcde6294d442eU,
  0x25c31bf5b92e20e8U, 0x27c6c028391c4ef8U, 0x39f9513f38b737e6U, 0x23b036cad2c0f91eU,
  0xdc949330c50e0347U, 0xcb44f1ca2acf4fbdU, 0x2a3aded225a024adU, 0x3b2913f1e9baee3eU,
  0x52e29b09bcd1fb87U, 0x9c986b19f84bf458U, 0xa266bdc8ff8a0194U, 0x11aec6c8e449a6b5U,
  0x65c5289f03755d8aU, 0xfb2398c7a9023093U, 0xd5c9ed40c9547a43U, 0x73019119a1579633U,
  0x410881a1fd1cce74U, 0xc407bdd50e20cadaU, 0xd8ccf3fb25dcdfdcU, 0xfed10f3dda53cde4U,
  0xd3c13b05451c091fU, 0xedc9d7bc3810f7dfU, 0xe5cbe0271b2727dcU, 0xed3456cb0ff2a1cfU,
  0xcc20073008eac905U, 0xfcc145e5e42a0bdfU, 0x1c3f0f84a162fecU, 0x12482de7f2c1ddcaU,
  0xe301cbbed6007fe6U, 0xb2b6aead1ad420e4U, 0x455089d9c22f8d8U, 0x8fd133a223c3a10eU,
  0xd616a4fd222bc519U, 0xe0ffbcd8eeacd2e1U, 0x81a72395c331cdfaU, 0xfb21c0232525bcc6U,
  0xf4bbbdb9261bc3a6U, 0x1b2f05aa8ee88833U, 0x995ff00df7b93c0eU, 0xd5b0e90fb6bd31dbU,
  0xa3fce9e4a79fd9ffU, 0xe4a805d7c5ddada1U, 0xb12f755faf149b1U, 0x4aaa01d604dac32bU,
  0xffd14dc9b0bf8f12U, 0x121e36992f1cb331U, 0xbe81291c38fc348dU, 0xc4e1fa29e011b5b5U,
  0x52ac213b963751eaU, 0xeb3ea2f0af52c0e6U, 0x3f031513e11409e0U, 0xdcd53201c1510f52U,
  0x4f7f9461637302cU, 0xd207cd1a50aeeb3eU, 0x10e726ebf3540e21U, 0xcfe11cf30d7f0521U,
  0xb282319fc161d2fU, 0xd9b6d1e02fbbc635U, 0xeb05d44ee6e0f523U, 0x19dcf01efa0a00afU,
  0xe2f214fc2ee8f5ddU, 0x71904ef0b28cbcfU, 0x1fd1f5ea17ee04ceU, 0x3fdd23d1fc09d81dU,
  0x1e1821c0fb052f2fU, 0xbc4f1c1137f7d015U, 0xec21e920f9e1edd1U, 0x16ec0ad03325c10fU,
  0xe6580bdac4cc0156U, 0xd812f6f91b08fcf5U, 0x10117f2eecdd35e3U, 0x3935f017e4ef2ceeU,
  0x1f2df49ee2e271cU, 0x29d5e83733c835edU, 0x2bde3129c23f2a11U, 0xcbe7d6f2e8ccf7ceU,
  0x13090227fd17f1ecU, 0xde3405f2f5cc3635U, 0x3ac937174bc4e82fU, 0x339c2cfcdf375641U,
  0xe0eecdf5e812ec1dU, 0xd1e447e6ee34dc09U, 0x15adad3dfd1afbc3U, 0xf3a62a3a41f7ed29U,
  0xcb0ae8eab9482581U, 0x47cdd82fb6a11e25U, 0xf748dde8392eb914U, 0x1429b2f1b943e00dU,
  0x501d38fc1b0b11d7U, 0xdfb3bfcd27bb45eeU, 0xf3eedfe824f4b937U, 0x1448b821b9b8e501U,
  0xcbf3f0e7dccda83dU, 0x9dbf553449ff4824U, 0x25225e606a39cad6U, 0x4f3c11b9b9162133U,
  0x23b82c3038dc4312U, 0x19d7c386bfa10b0eU, 0xefa147a1a4c2fccaU, 0xa2e9c1fa36187a6fU,
  0xd8ad565730bbc7d7U, 0xefcbbbbba4f2bdf7U, 0xd9cc9ddfc62d630eU, 0xb5e8dfeed2d564d3U,
  0xeef7f62023b081c4U, 0x27c43a3a3a61f4c2U, 0x86e8bee136c3f6daU, 0xf5bf63d415bf673aU,
  0x38edccbafb1f34a8U, 0x1fc6d9b0e27f55f3U, 0x28c3301039ed58d8U, 0xe4e2aea63dabe822U,
  0xb9e7c2cd40bac4ceU, 0x1cfb2bf4051b2df7U, 0x39bec3ddd44c0c27U, 0xf43fd71fd03105U,
  0x270b47be14cdacfdU, 0xb131f65afea90e53U, 0xf0bce817efbe9954U, 0x5cb09d401e15a8eaU,
  0xd9431638f8d5865dU, 0xa8af01b1b4d8e61dU, 0xac1524061140b30bU, 0xb342de9981c0d4c7U,
  0xdef04ea27df4ce1cU, 0x4596197966c16716U, 0xc12c48f4563f6311U, 0x23c11f060693f4e9U,
  0x9825b3e4c00e5bd6U, 0xac808ed0c3fc262U, 0xe80ac69a811bdef6U, 0xc3e83a160de5e43fU,
  0x3ed5ba0542490ac8U, 0x1ae2671bd334e2f1U, 0x1725e3253ed20621U, 0x3f513ed2f06c9e3U,
  0xebe9d6cbd1ffed47U, 0xcbe2c60aee00bae5U, 0x3c1b03ac2ec101bcU, 0x8c82355f11a2032U,
  0x6210d8de09c710c4U, 0xb268d410bc1712eeU, 0xffffffe500000009U, 0x18ffffffecU,
  0xfffffffa00000018U, 0xffffffdcffffffc0U, 0xfffffff2ffffffe7U, 0x8fffffff3U,
  0xfffffff4ffffffe9U, 0xffffffe2fffffffcU, 0xf00000005U, 0xffffffd6ffffffebU,
  0x1d00000000U, 0xfffffffefffffff0U, 0xe00000006U, 0xffffffda00000007U,
  0xffffffd50000001eU, 0xffffffe100000013U, 0x8fffffff1U, 0x14fffffffdU,
  0x1cffffffcbU, 0xfffffff4fffffff7U, 0xffffffe90000000fU, 0xfffffff6fffffffdU,
  0xffffffe10000000cU, 0xffffffd8ffffffe6U, 0xffffffde00000007U, 0xffffffe1fffffffdU,
  0xfffffff8ffffffecU, 0xffffffedffffffe3U, 0x18ffffffe3U, 0xfffffff500000009U,
  0xffffffdafffffff4U, 0xfffffff200000008U, 0x8ffffffdcU, 0xfffffff1ffffffefU,
  0x14fffffff3U, 0x19ffffffdaU, 0xffffffefffffffeeU, 0x17fffffff6U,
  0xfffffff900000007U, 0xfffffff200000009U, 0xffffffe0fffffffdU, 0xffffffdd0000001bU,
  0xffffffdd0000001aU, 0x9ffffffe5U, 0x24fffffff6U, 0x2900000000U,
  0xffffffeeffffffe8U, 0xfffffffdffffffdbU, 0xffffffd70000001dU, 0xffffffeb00000008U,
  0xfffffffc00000028U, 0xffffffefffffffc6U, 0x8ffffffe3U, 0xffffffe900000039U,
  0xfffffff200000001U, 0x8ffffffd0U, 0xfffffff100000001U, 0x4ffffffd9U,
  0xffffffdcffffffecU, 0x500000018U, 0xffffffe9ffffffcdU, 0x2000000017U,
  0xfffffff200000000U, 0xfffffff1fffffff9U, 0xfffffffeffffffc9U, 0xffffffe4fffffffdU,
  0x500000029U, 0xfffffffeffffffe5U, 0xfffffffe00000007U, 0xfffffffaffffffc5U,
  0x2100000000U, 0xffffffeeffffffdeU, 0xd00000003U, 0xffffffe8fffffffdU,
  0xffffffe7ffffffdaU, 0xfffffff50000001eU, 0x5ffffffebU, 0x1dffffffceU,
  0xffffffcbffffffeeU, 0xfffffffdffffffe3U, 0xfffffffcffffffe9U, 0xcffffffe4U,
  0xffffffe5ffffffd5U, 0x14ffffffe7U, 0xffffffeeffffffe8U, 0x500000008U,
  0xfffffff10000000eU, 0x8ffffffdfU, 0xffffffeb00000001U, 0xfffffff700000024U,
  0xfffffff9fffffff1U, 0xffffffee00000025U, 0xffffffcb00000000U, 0x800000012U,
  0xfffffffc00000011U, 0xffffffe5fffffff3U, 0xffffffffffffffe3U, 0xfffffffdffffffe4U,
  0x5ffffffebU, 0xffffffebffffffffU, 0x4d180fcd48573999U, 0x1080b3945dd2107U,
  0x2400a1c00e0206d3U, 0xe3d917c527a84bf6U, 0xc8dad9432ce4a948U, 0x44171fd026e3cb3fU,
  0x12cc59d0410ffa69U, 0xe9cb4bc009d04b29U, 0x7f5802da54035938U, 0xa9e92ffcb0bdc0e1U,
  0x4e4620cc15c42fefU, 0xc429dca8c2fb15b3U, 0xb84aa7b74d0753cbU, 0x1c16407c4d3ae63fU,
  0x3507cf3ebb542b16U, 0xbffb2a1dd93739e4U, 0xe344a0d83e133cd5U, 0x1639283ac3292a2dU,
  0xf93149e8ef0fd227U, 0x14321f161d41312aU, 0xdedf3731589ef7c8U, 0x5af6c829111fbac6U,
  0xaac5d012ce36f811U, 0x28d2ded057bdfe22U, 0x73d0cb64cc0e2305U, 0xc18e715c8faeed9U,
  0x2ee30dc437f7043aU, 0x241410213dc73805U, 0x25d03c0fc66dfc3dU, 0x2c1f40120e450b42U,
  0xcce9102705daee39U, 0x2d3cc4351ab612c6U, 0xd3fc413e0344cec1U, 0x12000b05f8f308bfU,
  0xdc2add0d65de43c1U, 0xefd2d53643c0fab5U, 0x1df8bcf3fc0828caU, 0xe2d4f61cebfee17fU,
  0x2f4f6a0fdeff20cU, 0xd32916feedbd1824U, 0xf9c6bbdb013aedcbU, 0x63d1c120a48b407U,
  0xfe1a12e2020cd61fU, 0x1d53f907cde6c8cfU, 0x3001e3153ee7f7e0U, 0x6c07a42aeff52fc9U,
  0x4c3c11393f151dd8U, 0x29af25d1e0b43528U, 0xd902e9c0b201ecf6U, 0xb7dce4fbc62c3417U,
  0x40be2938cd0a1e20U, 0xdcf211d5ea420319U, 0xe302c13bd8194419U, 0x43f5c74214f414e3U,
  0x136f32cdac5ba01U, 0x33bafab0e93e1809U, 0xec2c51070327e7ebU, 0xee642f2fcce4301fU,
  0x7f1df1d6f32ee700U, 0x4ffe281ef71e0a24U, 0xfe211d42012e1c17U, 0xdafec9d815f1ed13U,
  0xf0f1acd1e0ff43faU, 0x2e0f0c45cc40d2f2U, 0x1422e32af7f4d91cU, 0xdd6c003c1112ec0U,
  0x5f5ba40bffbcbecU, 0x31cdefeb45fdc832U, 0xd6e8293bfcdcb2bdU, 0xcad1b5fce2c6e916U,
  0xd8e114d0d32ffcd6U, 0x35f2174f3b32fb21U, 0x216b2517f54a1b0bU, 0x19d91b06cf09ba32U,
  0x13153c4a1de2f840U, 0xf70df22867e609bcU, 0xe4d4dfd3581831eaU, 0xb7e6d844d41b39f9U,
  0xc1bbf0cd62e5c36U, 0xeffe26a106f8bad8U, 0xd039ad39e22216deU, 0x13370b2debf1f258U,
  0x1801f0e7f01e18e0U, 0xe547ccf4bac1f93bU, 0x4b4c739c9b005ccU, 0xb2fdb8c0d7b942b6U,
  0xc31527c835242c1cU, 0xc920a8ca10f4e4feU, 0xc92f2d7f46ae0308U, 0x40de4f311718c4feU,
  0xb602dd200cbdb340U, 0x1cef4ab222a43913U, 0x14d6bfefea3430b8U, 0xf6d6fdf60212ece8U,
  0x3637ac01b4ace7c9U, 0xe5d3f3e729f7f31bU, 0xd10540d6feee251bU, 0xc71f3cd3100ffa22U,
  0x111d20d2cb0b2429U, 0xbdf9cb2af3b52b3eU, 0xa2bfbf3b2baff3c2U, 0xef4b4ba1fad3b38U,
  0x205a08db5f30f806U, 0xcd1f2823d89d5de4U, 0x5010d8dcf4ff3b56U, 0x14d6f834a0cc1a25U,
  0xd3f5fcb091ea4d7aU, 0x10eee2ecfb03aaeU, 0xacae6e063252d0d3U, 0x8a905b0dc3db5ad9U,
  0xc3f13a493634ceedU, 0x8eb7dba34e2182b7U, 0xe0d0c271da55a66aU, 0xb81afc2cdc6c24dcU,
  0x9e603f251f0a3a64U, 0x21a8a719df41c745U, 0xe5520eb2a58146e9U, 0x32cfda3ac5f7bdefU,
  0xe04c7f8caf229dcU, 0xbea0a92e0ac99b1cU, 0x41dd23ed3ed9f8beU, 0xe6c345f2f1fd0100U,
  0xa239bdf3e1a7fb2bU, 0xe3c1523d544316afU, 0xc38eb8eb01138f3bU, 0x1f0e0f3603543202U,
  0x341101031e33e2caU, 0x2737cecd192ac556U, 0x1f3f1c03d8e6d3b1U, 0x1423fefad637b437U,
  0xe794ff0801ff2e1eU, 0xe1ec9c0c0dba8e8U, 0xb981a4e4c324f4dcU, 0x2f19e91f46dda509U,
  0x205224fe4512cd9eU, 0x2ef251bdccf74600U, 0x2e3c043bf00840faU, 0xf00b123624ad9bc1U,
  0xeeec51231d0fa2c0U, 0xee31cf3672cff8ffU, 0x26fddb2d31141f1bU, 0x13babbd8eda220c8U,
  0xde5fa88ed3bc5baU, 0x223ad0bde41306U, 0x56fd120fdac6eaaeU, 0x13fa28b2cd11c639U,
  0xff13deb63e57fb35U, 0xfa50f5d9ba31a025U, 0x2f25e2e0fe0b0eacU, 0x2250b9a16fc802caU,
  0x53c92717b84cda19U, 0x9ad660cbe715ede4U, 0xbde6cd9af938c5dbU, 0x31cb1032d1a392cU,
  0xbcdf0c3389df3101U, 0xcee5c1c51331fd8cU, 0xbf04fdf3e0c50909U, 0xf982b615f581c1eaU,
  0x7ae2d25d71afe44U, 0xcb1f9907344e3fc8U, 0xebcaf201fc0ecd02U, 0xc5f1f0fbb53029c1U,
  0xf20d1c40acdce9d9U, 0x14b4eb3cc3f1feb2U, 0xd1e424bf1df4dad9U, 0xbb52c057c52b2735U,
  0x411dd625ddfe3bb4U, 0x4605c9e264ee0716U, 0xe0a4cfd2e7c7d8caU, 0x113c7481abbc6fcU,
  0x98da23fdd10d1507U, 0x2204cb4026a8cc2aU, 0xde029313a523afb8U, 0xb819150c0726cfc4U,
  0xff0cafd2eef0d3faU, 0x2c51489fd8fe3717U, 0xd5ea4e0be03b2bc5U, 0xd2fa1a33c62512c6U,
  0x2c49fdebe3044641U, 0xb92ff8b31d3856d9U, 0x289affd635bcff27U, 0xbc41d9f7fcbaef1bU,
  0xf068ccb04b27d0ebU, 0x76b7e22c079bfa05U, 0xf12403e37d9d737U, 0xaa1bdb19e62f1528U,
  0x38dece1f32eb4d08U, 0x4a0ddedbc5fa167fU, 0x18be49523a421346U, 0x41e1d2f208d0fdf1U,
  0x8eb1602f7e73bbeU, 0xe3dfebc51c171a0dU, 0xc6ce2cd5f50a0133U, 0x381be430f6ccc606U,
  0xd52205040bb9bfcdU, 0x241dbd491b4016feU, 0x27d210d6daf63b48U, 0x4415c8fd3c00da1fU,
  0xcbce2f43d43184dU, 0xffe0499220dab64bU, 0x2a39d1ca9e4e36eaU, 0xd4a9f4f8d63af9c5U,
  0xb11d9b949c627f2U, 0xe2f7adefe4c9b3b4U, 0x72a0819ee49461fU, 0x2f625d03d93be6e5U,
  0x45cc0f44deaa05b5U, 0xd1d6bb124ea7bf58U, 0x32bce808427fe0f3U, 0xf0bad73923e8da44U,
  0xfaeb0b47a424ecd2U, 0xe942d13b0e1fad7cU, 0xe7e011d40afd1104U, 0xd21ef414f2b2c84cU,
  0x2fb14d263c27eecbU, 0x7efb21bb9c32a03U, 0xbd16defd0f0dae18U, 0xa7062a07c52bb4d6U,
  0xad2ddd942f6bcfcU, 0xf7b41dfa15e11635U, 0x101550b95d45fad5U, 0xd7042b0fdac4fef9U,
  0x47d9232637a82148U, 0x5112fbad2eca02caU, 0x30af402211e7be22U, 0xcda6e5f837d94922U,
  0xb92f34060e0aca0fU, 0xbd448de2cabfd1fcU, 0xbfa4d8dfbddf53faU, 0xc6d8db650eb2b80dU,
  0x50c9efa09be2e22U, 0x9bef2f5307b6c081U, 0x2a5c82aa40acd02U, 0x773943000dfdf93eU,
  0x8cc6f72e3a47282cU, 0x423c58e81033e817U, 0xfbfa432c514c1f02U, 0xf93509e1c72ea1c4U,
  0xc0cade260038e1fbU, 0xe0e428cae3562cceU, 0xe84d4d342de6c70dU, 0x632eca23ae61bb26U,
  0x77e4bc54d20de53fU, 0x338c02b98b041ab1U, 0xe9e1e71fa932fcc6U, 0xb53d483fb2ab344cU,
  0x51b5a930b9ec2d2aU, 0xdb2ef2f00dfc224fU, 0x151cf403d69c111aU, 0x3dcf13eecd20cf62U,
  0xf0d9fd2c2426b72cU, 0x30a42926b4f81bdeU, 0x31ff43240135b948U, 0xf05a3e2f325c1d1aU,
  0xa5faeeca194a1119U, 0xb81e0a20bbd002daU, 0x9c31c428e0d20dc6U, 0xca6ced02e133cf0dU,
  0x23bf0ae510cd97acU, 0xf75cb23e6b1c5d2dU, 0xe91df6eff91cd8ddU, 0xe1dd3bb9fef84fcbU,
  0x23f9d32b37b29c7fU, 0x10eb3bd4f24d0ae4U, 0x9eac10f61ac04605U, 0xed53f811273fb217U,
  0xb1ffde9e722f900U, 0x112d0ebed2dfc441U, 0xd9530e17aca932f5U, 0x33391dc474d416eeU,
  0x2020ccdf1af2dddcU, 0x1eecddf578dc55b1U, 0x4a9902f924d1b4faU, 0x19cc47d61a4eebb6U,
  0xc5b90e9766b217eaU, 0x5ced2617ae09b0b5U, 0xb80333bcd9a44136U, 0xd0d10fe7e92eaf30U,
  0xdfb6d5f6a7cb54ddU, 0x379bfff18da910f9U, 0xd7421bae11dd2212U, 0x2d23594f483c0bf0U,
  0xf7f73a482ce2ac11U, 0x2cabb564303b4003U, 0x2f41085dfc6c324eU, 0x3e5b04e2de11fc64U,
  0xe504c31a4ed561deU, 0x56f6e2452c0cd3ffU, 0x2818d501e565a30aU, 0x153f24bdd63234e4U,
  0xe74a19def69815ceU, 0x1d45d956b7361900U, 0x13f02df560d72e0eU, 0xbb1425e39f6df94fU,
  0xf1ed88be659bed14U, 0x3300093e7f3295cbU, 0xb2e8b04b2d132909U, 0x29500cdbbd1de81fU,
  0x5da162cd02ee1007U, 0x1d0a9ce5eb1fe320U, 0x4d47d7338ae7ef52U, 0x50d727f9105017bcU,
  0xda38e525eeeda10cU, 0xce0e0bcde4cbbf20U, 0x1405d810ca4734e4U, 0xed66f423db1cebe5U,
  0x59c8244e605642c1U, 0xfb2ef6460b11d4efU, 0x17e5b3ef54fbf93fU, 0xea48a80714fb15eeU,
  0x585004d32e9d44b4U, 0x18fdd939e04f8163U, 0x55ffe72b2210f0bbU, 0xf22b26fcebdfad37U,
  0x13ba4ee301464005U, 0x4dd1d02430e8d2aaU, 0x5c19dbd028c944f9U, 0xc71c99dc37b5033fU,
  0xdb001a3940f4dd23U, 0x8e5c3cacdc2d255U, 0x32b4d621d6aff942U, 0x1b2215c0d11b1030U,
  0xb7f0b0223eedc0ceU, 0xb5ebf80300f5ceb1U, 0x19d01dee255044b1U, 0x49db0781bc6dc030U,
  0xd7d22fe054b926b4U, 0xb7cad84edbc3d559U, 0x320c3d3eb718c102U, 0xc734209be9baa9e2U,
  0xb94dbb1a1b2db6beU, 0x934a961a171f0030U, 0xb59cb0d1443f380eU, 0xdfdad7bb08ecdb9fU,
  0xe1d52cf2c649434aU, 0xcdd43a9dafe9dce7U, 0xbbb8bb0d171a5a1bU, 0xa1c8f1afedc4ecb9U,
  0x2ed4e54d272ab648U, 0xc755e9f759fcf7dbU, 0xe30a3ff5b7c7daefU, 0xc6a552b6fb8bd3e6U,
  0x52d5aaf64a3db012U, 0xc715de44d8c544b2U, 0xff352ffcdaa90c14U, 0x44ca2fd529dbf5c9U,
  0x2df0b4e835e90fd2U, 0xd39f0b323703d935U, 0x381d405ed70513d0U, 0xe2403c2dbab96e9fU,
  0xd231c46b04292ea2U, 0xcd07153e2fe8dd1eU, 0x5f817ddfa2ffedeU, 0xe9b6fa033f3c47f2U,
  0x3ede06ca01440526U, 0x54e1ec1eef30f8d9U, 0x313b470122e0d449U, 0x40f328f81cf54262U,
  0xd22f264426ea4b09U, 0xd1f639340636c100U, 0x1f3c233a12d4e6f9U, 0x2afdd93341fe811aU,
  0xea10eccc18c4d710U, 0xc247ba31bea5d2c2U, 0x3e3dbde81ff21b1bU, 0xf1e8f1ff31ff3ed6U,
  0x35cd0fcb3cc6dd41U, 0xc848efa64bd22bddU, 0xff0dbdc9e906f4e6U, 0x1c1bba1f3319d1baU,
  0xb1d303e81d45c934U, 0xfe3a34ff54fcffe3U, 0xd01ed9181fc33cd5U, 0x2dc91cb1fe121ec2U,
  0x2cd30050e4faedf4U, 0x3119b2c9b5ed4e51U, 0xa66c9ccb3fd2dacU, 0xe5f49df8f336bb40U,
  0xe624364e2793a665U, 0xedbb38c0cbe0a5efU, 0xa3d6a5caeae7d9a2U, 0x3349a7ad3f3c337fU,
  0x619df1b1ccdfda31U, 0x3fb221230b4f2d1bU, 0xcc4efe54972d2d63U, 0xc7a061af5839a939U,
  0x551b819924ef2a9U, 0x4e1428575f24ae3aU, 0x1adaa317a3d0a154U, 0xfda0bb00c6c889c5U,
  0xe1d037ca031a4539U, 0xf0f8371618adadd6U, 0x3beb08985ce146d7U, 0x23b34ff83aa654f1U,
  0x3810054039ced410U, 0xb6d05153222d1f07U, 0x423eb7a7fbe66a45U, 0x69252552422407f0U,
  0x43e800ee3f9f9431U, 0x35c19868cec813d9U, 0x23d7e3fe33dabe12U, 0xfa292b160a2a10dcU,
  0xe602faf332e4e4d5U, 0x2f10e8ef07d3c8f7U, 0xf8e1d0d81bc3d6ccU, 0x1801ee19ca2a2deaU,
  0x82fe4fcfb1138e1U, 0xf906f0e81fe3f7ccU, 0x61fca24ded8fdfaU, 0xafe323217d0fbebU,
  0x40ebcdfbe1eacfecU, 0x2aed030e25fe26ebU, 0x2f2d09ff047fcf09U, 0x1f7c6363cd704cfU,
  0x2bc0c81135facb3aU, 0xee5203b3ff4f1e7U, 0xdffdc65c29de21d3U, 0x2505fb1a2d0fdf02U,
  0x39fa19d9cafbbdfeU, 0x3415c5e328dd411bU, 0x2dcfc5102dd41a1aU, 0x7fdef11152331a12U,
  0x23250fc6326c210aU, 0xe224fa1215f80bb8U, 0x13dc203d6270ef2U, 0xa9bdf68d0704d116U,
  0x4606a59ce6af013eU, 0x19cf42a63bb4c642U, 0xa6f4b8dd8df476daU, 0xc841dcaf0bc7ebb4U,
  0xfeff401ea88d9a11U, 0x3d1f29b5df09cd87U, 0xd20e3232bacebafeU, 0xe9ab359d570a239aU,
  0x7a0d81a3a3defd32U, 0x324e0604fbc80044U, 0xe1b6a2b3be3cc7dfU, 0x3f44fbcb08cfe517U,
  0xe5074055362b45d2U, 0xdb42b2d19fe41dbbU, 0x20452496b59804ecU, 0xb4c4f0f2cb51babcU,
  0x642020aa29a5f8eeU, 0xe3381bbbdb25d330U, 0x47222cd208aa02f8U, 0x14d39b9d9f4e1ef4U,
  0xe22824209fce0ffbU, 0x568f14d03d01e06aU, 0xa8b74bac694fd4fU, 0x35c2522090fa322eU,
  0xe1b5fce3201a3347U, 0x44de2014493efbd3U, 0x231aeb4c0e351b1eU, 0xba38e7272b9f1a28U,
  0xd5e3dae9e3bd0eedU, 0xb6be0616c00ff6b5U, 0x19f0c7f3f716c254U, 0xb0f52bcf162aeac6U,
  0x73b8102afe0001bdU, 0xfa3ea4f044ea090aU, 0x3dd12a4935ffc8dfU, 0x1ea7f3eb3118160eU,
  0x2de5f144e772a059U, 0xb823d57bea46241cU, 0x4b4f2c0d8142f9f1U, 0x18ac1ecb0900e0c1U,
  0xf8e4c93ffa140da0U, 0x1de3e823f40bbf0dU, 0x1ffe3514a5caf0eeU, 0xde1bb0f5fb5b9c2U,
  0xdce324bcc405dec4U, 0x272905f3c83110d1U, 0xef41274a1020db31U, 0xd7d9111e0842cdc1U,
  0xf2f62820b5f6ca08U, 0x2022f950d37f22f0U, 0x38efce1418430fe8U, 0x20442f1a0afaf423U,
  0xe1a1228e3ed3621U, 0xc5dc350cf109e80dU, 0x4070c1d41c6f832U, 0x12f3262827f1ece8U,
  0x24d312e8e016294aU, 0x380803d1d304f2c8U, 0xf71612c7d7f7e009U, 0x45f71e0feb1b08eaU,
  0x35e3c931f41c1ee7U, 0x35d0efc72a28be2dU, 0xfe26cc3706560d11U, 0x16f020166af01322U,
  0xf72a33eefbd3c2e0U, 0x15f80e292d05d521U, 0x71dd801001e191cU, 0x2f5a34c101192b1dU,
  0xcb3ae2e3d5e7fe18U, 0x42f5ffdd2dfdbfddU, 0x39e2bef1e8030cdbU, 0x1d3ee2254159dfe9U,
  0xe610e100c4f0bc1eU, 0xd534f7faddf443daU, 0xf2024d000ed3a015U, 0x37b9de4ff56afa96U,
  0xacea224adcb3ffc1U, 0xcea151af87c99c3bU, 0xe7480128d1334710U, 0x3a91a72030909536U,
  0xc3da0b84e49867cbU, 0x97971e9c24d79bb9U, 0x6c8c1b0accedbfd5U, 0xcfb5ac0189fefae6U,
  0x6c9d23d29b6ca37U, 0xebf3e7330160be10U, 0x139c1de2a1b781a6U, 0x903ce5dfcb01af53U,
  0xbaff28a312c9330fU, 0xe93939d4e6f1ce32U, 0x3a2549439cc21e43U, 0x9cb7c3e7108426a6U,
  0x3c66b5331b17d212U, 0xe83b03d0f2d2e992U, 0xd02d62fdb2281cb1U, 0xd3b1b9b3b0cd3528U,
  0xee1ca66cc0ba8U, 0xbbfb1e239efd14d8U, 0x50ac230c0b2fad47U, 0x52db5d429cfea1b6U,
  0xf55aad1f51a9ae28U, 0xf21826eba1b8da53U, 0x67a5b9b2b900c33aU, 0x15cde2b99210e5e9U,
  0x3faf3f7fc3beb10cU, 0xe45d58b2c5f950b8U, 0x3a19e15015fa0a01U, 0x4eb9b60335c13de4U,
  0xdc36cb5feb1b0115U, 0xc3faada89bb2a4caU, 0x1e5f5b4b08e8eb9eU, 0x17e09164a5cef001U,
  0xb8ef5acba4978650U, 0xad58c3174fbbfe41U, 0xa1b506c28ecb08d0U, 0xd45ba65ab16048d3U,
  0x4408d48fbf11c00aU, 0x1d2b09aee92d07cdU, 0x95621c4c708cec1U, 0xb44ebde7441d1e2dU,
  0xb6b6da27c70ff2acU, 0xd5047bae02db603U, 0x18b34256edcd15c4U, 0x6aabe4c68cd9b768U,
  0x1c813c1522690d36U, 0x9f0483b30e9252aU, 0xe9ed1f303da8b439U, 0xedd2336abdbae7d4U,
  0x1146ffa02e4dcb6aU, 0xfbedeeaaffc919f9U, 0x60dfe3f8531bed43U, 0x37bd012526f717fdU,
  0xaa0c5435aa223dceU, 0xd84f9ee8d82ae545U, 0x2a4909e412f0ab48U, 0x6db0644c24c9ae4U,
  0xb1f10956fd21b1dcU, 0x2a14bb5202decdf6U, 0xe1f1320fa820b2e4U, 0xae52a22d55b6f943U,
  0x27ea28e5f72564bcU, 0xd6c2ddf4a53303bfU, 0xb8efa4e939afd441U, 0x80fe2cfc6baddb8U,
  0xb201a613c407fbedU, 0x92a93629c70bfc3aU, 0x470504b4d2ca1cbaU, 0x1843e0d52dba0cdfU,
  0xa22127dcfaf1fcedU, 0x2bedc2492ff853c8U, 0x3f5bafb530a25732U, 0xeb26c2ec30971bdbU,
  0x16c138c2b0a3d234U, 0xcf040febf5f0213dU, 0xfac62e355034a481U, 0xa2fc3fccaf11a436U,
  0xfacb22d4004d521cU, 0xf2b5dc0c1ba0ba38U, 0xd6cdecead7a90623U, 0xdfca0ac3123a1a3eU,
  0x1b0abff3d8bf4d07U, 0xf6c21ad5c90718e3U, 0xbb1d4cb524a0ca0cU, 0x32e30d1223c989d7U,
  0xf81dfc2d43cd33e2U, 0xabf129f2171623c8U, 0x38ef59da4f1cb2aU, 0xf4253aefd19d50e5U,
  0x41420b1e82e1d29U, 0xb7cea826ce2d56e1U, 0xe6fa3fcfa6a9e8fdU, 0xe70d05f6eb123f3cU,
  0xde25a3c8e81cbd2dU, 0x48c0b0a118b71ecdU, 0xb1f23d9cf7ec0371U, 0xd14350b601e342f4U,
  0xf045132624dfd0d5U, 0x340545e4e3a9fceeU, 0x1ee2fb1eadef0fddU, 0xe8cb22f9f4e9ea2dU,
  0x9cb7dec81515f241U, 0x534fffed50a3916U, 0xe3b355b401aff6dbU, 0x9205e437a1b413c4U,
  0x312a37e41d471f04U, 0xab2b44f324451681U, 0x30d3e44f00ffb541U, 0x2fcfbaefbd0a46caU,
  0x23d12dcc747022cU, 0x6ebf62e1b46ec18U, 0x434851f4aee81bfdU, 0x18cdf1ddaa2fc038U,
  0xc2bfbed6dec33710U, 0xb0bfbc2c2eb7b0e9U, 0x152efa2337dfe51dU, 0x971efffba3a265a5U,
  0xdc902bccf3d4d14cU, 0xbad2cf2631d1f1b2U, 0xf82f1aeef73de3c9U, 0x22ece3c1e10f17f7U,
  0xf64af829f2ddfcffU, 0xf2b3be0602b4cecfU, 0x3ad212e3f8a417b3U, 0xc40e24fb72cce2cU,
  0xf52a3ad9321fe2f3U, 0xd8efd1c23eb13239U, 0x50dbecec29bed832U, 0xb4451f44fa3e1656U,
  0x513020aad967cd3aU, 0xd92c2e90d72f3ad7U, 0x2f0128ae937fa3cfU, 0x44d8b8ea64a8c61eU,
  0x30e8a3d8be88f6c9U, 0x46d809fdd4b9f5b8U, 0xc53fde06bbfc191eU, 0xf91baedf704b2836U,
  0x2d0cb2eada28dfc2U, 0xe2db4302371dc304U, 0xd1fa1d2fcced92eaU, 0xc8f23f38e3574527U,
  0xcf2b44e4210a42ddU, 0x2ff37cdda9a1954U, 0x2f2f5cf1c003426U, 0xaf1f1ccae82e0115U,
  0xf4ecedd4cef1ecedU, 0x31270bd4c5cae1c4U, 0x35efd0d3c9f320f0U, 0x34a61edb1e0025dcU,
  0xef2130cc22e72229U, 0xd51bfdce20eaef1aU, 0x2fcb22e6180123e6U, 0x1ad22dfd38fe00f7U,
  0xea20e5cf1721faffU, 0xbdbb26161e1ecad5U, 0xec2e011de40dd1fdU, 0x29c70305353427c3U,
  0xd700c7eb167f05f5U, 0xc911dceae8e2d92dU, 0x1df13012c3cdf930U, 0xc34f425d0eafac0U,
  0xdb1bc53cc5eac707U, 0xa07cbde11ca0931U, 0xf0ea2206ca02eac5U, 0x3c1b0edf0f0d140eU,
  0x29e8e8cb3a0f2227U, 0x5dd3d9390c1240faU, 0x144cb16f1e6d22fU, 0xd3efdfc9f50f1e1aU,
  0xaf15cf03d0c7f3d8U, 0xc303050504dcf03aU, 0x1a0ee544ba18e343U, 0xde19d4cdd90c371bU,
  0xc30ee9ef05fa13f6U, 0xda0cf9e4e4e62c00U, 0x8a6c913ba2c151cU, 0x38c31822c8c6e92bU,
  0x719f5bb1e0cd1U, 0xf70016b6d6241bd2U, 0x42eb1ff2cfa1e023U, 0xca0fe8173ee6bf18U,
  0xfce7d0b7fd0e08f4U, 0x31bc472d18e7c5ddU, 0x2ebcbc1417c1d8f6U, 0xe8c916fac3312dc2U,
  0xffb73e1e5ef90104U, 0x4031d412d8f5ffddU, 0x9e0e1cb548eadc4eU, 0x3c81c9e111df4932U,
  0x372fc83b3f343cb4U, 0xed200cbce8bbe0e9U, 0x9be2625fc1afddeU, 0xcfc8c6ed0c3e07ebU,
  0xd51238e2f2cb4208U, 0x36cccce3ffedc8c7U, 0x683b533db97532e7U, 0x580abd2cc341e000U,
  0xcfb8d7c90959b425U, 0x1ac61333693d2ad0U, 0xc9f50738e95c0d0aU, 0x5af4f8143be43ccfU,
  0x5955a1bda336c7f1U, 0x79f74fb30ed0d02cU, 0x3a4a2027ebd69a0dU, 0x6dc34df4ad0f5997U,
  0xf5b4fe23d67141eU, 0x6ce23ecdba103f2fU, 0x27dbbf3244d99da3U, 0xaa356477541e9f19U,
  0x13b3f2157b1abbbdU, 0xd527bf64d6069e2fU, 0xa51ebf51b0ee0c19U, 0x244e979217e6d165U,
  0xde790c67c438f02bU, 0x66507f47bddf4c10U, 0xc219e413ffa35d52U, 0x616547cfbd5895caU,
  0x39f93cbba6194507U, 0x854238dcc3e2c41U, 0xfe01279325fa69b4U, 0xc9a9bbd9c826f435U,
  0xd4eac3fbb3f3a348U, 0x44faf93c2faefd0eU, 0x44393728d207f60dU, 0x9c234de7c5113602U,
  0xe64bd73ae2c413ccU, 0xc130e246c5110911U, 0x3652214f1051bc12U, 0x17ddbf3b11ae29efU,
  0xa55abbd1d70fc91cU, 0x3cd134f2d3b3b5c8U, 0xc7ab04f6412c2619U, 0xbd473106213bd54aU,
  0xe4d525bf45026d6U, 0x133007027f022605U, 0x17ba3b32181316c9U, 0xee0e68a6c7ec43acU,
  0xca7b8fbfec810f7U, 0xac77f3e9f9f00a4dU, 0xdb5ff2263ebbe0bU, 0xf1ef23444a1230eeU,
  0x1defe6080d5bebfdU, 0x31c712c92b16ad01U, 0xa20af6e5e242bb3cU, 0xa3f023966bf4292dU,
  0xa722ab3cb91b4f18U, 0xe3aa2313543f52caU, 0xbaf1b126a2edfa29U, 0xd60b5dfa350b48bfU,
  0x2536f401e41af2b1U, 0xb8b74953de42471cU, 0x52fae7cd8134ff3fU, 0xf70bbbaee03db00eU,
  0x2dd1932838150397U, 0x12afbb1a3ec13df0U, 0xe6e124f7b597edf9U, 0x4dd7d7351f58a5ffU,
  0xf9a82b3ea5fb16caU, 0x1345a5c6b810c40eU, 0xb9fb4927af39e7d1U, 0x73dd2f1b1db01b9U,
  0xddb0c2fbf13e379eU, 0x153b38b7b7db2eb2U, 0xdac326b5e1a9cc06U, 0x23470112bd96d63aU,
  0x1eb7d9eef3c22d1dU, 0xedf1aa144c4333cU, 0x1f49183effbbebfaU, 0xe6eccfe5f6d63409U,
  0x2d97dc00fcd711c0U, 0x3e0dcd24033ef4f7U, 0xc2373c471de9f5b7U, 0x2ebd7d10b45107aeU,
  0x2cbf370ce021d833U, 0x3625e29f30f9c0feU, 0x402af18e2fc3834U, 0x1aae304ffce31beeU,
  0xcdc6f1eab4e8d4dbU, 0xf529fb5f45e335c7U, 0xca58e3074ad106c6U, 0xd2b0b6262df7d50dU,
  0xb414e71df53ba99cU, 0xd312fb2fb9d2ef42U, 0xb60cac0945fc7ffbU, 0xe8ddbd49f117d7faU,
  0xf702e6a1c6d333d5U, 0xf0191caffaf22cd3U, 0x40bc1fef544a2c38U, 0x4ff5f9d248c84c27U,
  0x4a56f32de409b1cfU, 0xc3be09a9f2fef912U, 0xe9a1b79ba61a3fddU, 0xf75ade18fd9f1ae1U,
  0x1fab9f9ed97bb05U, 0xf34e512ef9aecdaU, 0x1df4ae190bddd761U, 0xaf1116f5d21ef20bU,
  0xc9b45324e037f92fU, 0xc2beafbb02dd0b06U, 0x2fff9a45112e0c35U, 0xc1514408bccdb8efU,
  0xeaf70edc7b0b19c6U, 0x1a1204a934ac92bfU, 0xc641b55fe5dcefbaU, 0x143e42da53c31fc7U,
  0x81d857e43cbdd3c0U, 0xa1fc530cc52734fdU, 0x4435a7f267dd484eU, 0xb61a2312b6ffecdfU,
  0xaad13a1d15ee3a35U, 0xfe0e33a0a9a9b6e0U, 0x26e333e91e24d6eeU, 0x1a231a2db04e1e39U,
  0x3df917f5f2b74c87U, 0x210153be2b2fb6ebU, 0x1a02d910f726c5f4U, 0x922cd7019807dd49U,
  0x239ba11f1bfe1a24U, 0x39132cff0931111fU, 0x421432d79c28e599U, 0xfcca0ccb119c3bfdU,
  0xe9f3411053220734U, 0xb82e1eccfa56cb13U, 0x3aefc104122df4e2U, 0xcdd8b23ecef704b0U,
  0x16dc80dd0dba927U, 0xc8a742f714ec4603U, 0xb7ae4f04dc1e0e7fU, 0xc9b9b624eb6fff18U,
  0xf5fab8ba1a17dfadU, 0xaeecdb5f49d4e70eU, 0xc8b13b49ce4ecb05U, 0xed052eccd9b3db4dU,
  0x1aebb53ab5fae415U, 0xe1ee1ba9a9f21e54U, 0x44a0eba9c32bd71aU, 0xbab5e5c1e96b221bU,
  0x39e4c9d71f0bffe6U, 0x3b5545e1eae0b7e9U, 0x2318e5444adfcce8U, 0x104ac84468e4de33U,
  0x42c19eb3edeac1d7U, 0x2643a43e3d4b9e45U, 0xe7535116e3cec3e5U, 0xc2d512e1af1416ddU,
  0x2576095c4fbd35c9U, 0xee263edba4da22a6U, 0x9c040424f55e5d6U, 0xfca2e2c0b3200af0U,
  0x3ae8b9bab1f33c7aU, 0x46413b914baeb1eU, 0x2f02b04179b011d7U, 0x1d7fd0555003343fU,
  0xd112af2fd937021aU, 0xf1a8b715fb14a9f3U, 0xae141ffa04c50b3eU, 0x33e9dbb914b5bff9U,
  0xf015ebe9c710060dU, 0x1f2334b0fdf13911U, 0xcad647212c27efd6U, 0x28fc2051b43f5606U,
  0x3755badc0808181dU, 0x3fd1e3003243d2d2U, 0xda0f11d0da032d01U, 0x26b95945f53ef1cbU,
  0xea480e4af317eaedU, 0x49e9531efca6fbecU, 0x2e4dfff31211e6cbU, 0x9207dece3b39fdbcU,
  0xc2ede7d8ffbfc70eU, 0x1119f62306571d2aU, 0x1247002015d3463fU, 0xfe2d10dc27492dd3U,
  0xecfa4ad62a0e7f39U, 0xed27bb0116cadeabU, 0xd43cde8fd2b21eaU, 0x4025d70defd439bdU,
  0xe26c07f1d6f2d90fU, 0xcee2b4324b14baefU, 0x5fb8dee5addfddb4U, 0xf4c1f41f51e2b8b8U,
  0xe8d6dd484f37c817U, 0xf504fc04dcd617faU, 0xb04dea17102b1703U, 0xc0dfe6c3cabbdbffU,
  0xfc36303d0d05fcf7U, 0x39b13c0e2bcd44dcU, 0xd4c0b815f71d17baU, 0xc3fc4be63eed0045U,
  0x10d445c7133c2337U, 0x7f213c1064404cdU, 0xcf00fbacf22eec45U, 0x504b6babc1ff04fU,
  0xe6fad702be140c32U, 0xcea3c9330baded3cU, 0x5cc0b915f815fbc3U, 0x2c07c8c204eaf4acU,
  0xd138aec72a26ef56U, 0x12b52b2b2273905U, 0xc3c54934454cfbd0U, 0x25e411eae12e4f81U,
  0x2b07ec1b17a5b713U, 0x1799ebec4adc091cU, 0x43f09825cd5805d9U, 0xc3f7f5bcafaeabf2U,
  0x8dd6a40414a9e240U, 0xf3cdb39fa6d1cddcU, 0xf640ca2cabb4d4efU, 0x9f7bf05fe25ce9aU,
  0x9e16bf27a2b02af9U, 0x30fe1f99bcbdce25U, 0xb169e2a119aeb136U, 0x72fa8c0d519cd9cU,
  0x2c12d7ff18b2910dU, 0x2c9d0022ef39c4b0U, 0x3f123c7bfbeb201U, 0xb52c8af734c8a62bU,
  0xd54cced4edeb3cc2U, 0xaf2255bc98c9f0cbU, 0xd5a31efae127ae1bU, 0x1297acfb324b5eaaU,
  0xacd23cfab2fa512aU, 0x3cfd9e0c51db64c8U, 0xf91611f7ef43bbeeU, 0xbe432e45fce8de18U,
  0xe917a80650a9dc38U, 0x49d9e45351055ca5U, 0xd3c9e948acb0c232U, 0xe4bf8f244d1fb9f5U,
  0x56dac5e73e3fc946U, 0x21bf58dffbb1a1c3U, 0xd9bd47c0bdc4cea3U, 0xf1f4f3f9e23421ceU,
  0x2e5a13c62af8f515U, 0x2f17cffa2bcfaed3U, 0x22adc9d1421e26bfU, 0xc5394ca6d01331acU,
  0x31fcb7aceb0a1815U, 0x2b460fbb039f35cbU, 0x413be942218cc50U, 0xc9274054bb9ebc54U,
  0xb2542ce6edccd5dcU, 0xb621e69baeaae93dU, 0x48d3e3b0c30436e2U, 0x7fc9ecd52d2a4d50U,
  0xf5d833d9e93dec00U, 0xd9e0060c2efc2cdfU, 0xe7330a1bd8cd1413U, 0x13fe0ee416d6f3f2U,
  0x2922f6da35edc9cbU, 0xcbf1e51cd12b1404U, 0xd8c62c0e11e527ccU, 0xe7c40ad7260612f2U,
  0x222409f31c29f1d6U, 0xeb21eb15f9e337d1U, 0x19e10521dcebd219U, 0x160fdd05ea09ff22U,
  0x1508d40a231ae210U, 0xf5fbd92a0202f909U, 0xf306152ee42acfe8U, 0x2213e8e129020118U,
  0xe5dd222f1ce1261fU, 0x6131824eefae838U, 0xe001fa2cdc24e5c4U, 0x2cd6fdfde8401bd1U,
  0xdbcce1cced01f01bU, 0x5dc9fc1a342715ecU, 0x29392de7fe04107fU, 0xf4e802fc24fa1d13U,
  0xf91a04ee2ecef718U, 0x18b5f864237fb709U, 0xd93b0728ce13193cU, 0x3c25b7f8dde1d53cU,
  0xbebf4adcf3df1b1eU, 0xebd0808eff71213U, 0xff2517c2fd07f54bU, 0xd4e90f09e3eb45b8U,
  0x1e1fc60a362cbd08U, 0x51b34bca23b1df40U, 0xf8ca3f51ca222323U, 0x4f08f72a143e3fc6U,
  0xe73fe0151ceecc3eU, 0x2704e70d1dfc3f12U, 0x312412361edf02c2U, 0x14c8f20aa4c90918U,
  0xffdf22fb071238e3U, 0x18d3e949bc052903U, 0x58f1c8402d3d08dbU, 0xde160fdf0effb843U,
  0xf8c9d0c5cfec5e2eU, 0xde12aff232c7d845U, 0x504cc31fc0e274aU, 0xfeee002fd24326d8U,
  0x1da7baf43c253341U, 0x4bf1ae3c3af21f5U, 0x1f3d6429017a40eU, 0x3b18d6f4a867e2d5U,
  0x4954123aced83ac5U, 0x1938db2b487f3621U, 0xe7e229e424e6b569U, 0x27e724210138a3faU,
  0xbdf61453f0ba2eecU, 0x213dd7212fa3c6f7U, 0x2edaeb253499b041U, 0xa408ef04c7a5d0a8U,
  0x10e84f240cd00e16U, 0xaa2c1650c716e8c4U, 0xcd1111b8231dacc7U, 0xeefe475cfa3d9ea4U,
  0x22b21fbeaa3b00eeU, 0x460720f49be7e044U, 0x3fd640843ceb96eeU, 0xc430d60dcc74641U,
  0xafe4c2b737bab5efU, 0xecc8c3224a3ccdbcU, 0x24e7d44c882da6d1U, 0xbbfb08d8c6d3261eU,
  0xf326e03320c4b0e5U, 0xfbac363d0f515892U, 0xe8c8ea1604ba5437U, 0xd4b7d91511f6dba5U,
  0x4c5ea4d940ea1450U, 0x9eab81c0ac520d35U, 0xe298f54edc190109U, 0xe594ea08cf07492dU,
  0xad3031379d109cf8U, 0x345253181d4af0f5U, 0x32cdadc642f4c21aU, 0x40b19ba757b2e69bU,
  0xbdcb5151a91baf63U, 0x2930b817643f3d2aU, 0x4d1231493955f1c1U, 0xfeeafea8be9348a5U,
  0x5445ba7e62b638adU, 0xedd852091d252131U, 0x34b40257668bdcccU, 0x311b3a9a5cfb0c44U,
  0x2ad4d42d0240aa09U, 0x30b918a0fde6f02eU, 0xa0dcdbd33a17bd06U, 0x2d16e2499e70bf9fU,
  0xecfdc4ac60f7bdccU, 0xd21912eb51ca4eb0U, 0xa8f42644a5c63e0cU, 0x19172f2aab83fe4cU,
  0x5901c489b06ea21dU, 0xbe26df0dbd5832e7U, 0x44494fa8a7a50ea6U, 0x623b4c194b554553U,
  0xb3dd0e9f22261668U, 0xd2ef0fd3e6dcf03fU, 0x814bb5d3d8b4011dU, 0x4208bfcdcede1fc7U,
  0x4b10450ae515fde4U, 0xd66b0921542044bdU, 0xfd40cac152fb292dU, 0xcde532fb6ecc6bbU,
  0x1d32d23b02dc2c7U, 0x48aebf3bae4eef47U, 0x9c3bccf13e2ac0a7U, 0x3311a311c02f0927U,
  0xa515ff5bf8cff04eU, 0x10b255342efdee26U, 0x92127c9b61715c6U, 0x49e1d62cbb2fe0aaU,
  0x5713fa50acb129c4U, 0x24cde3d0004b4fbcU, 0x34d5efd1460bb432U, 0xa77b32c3d6e0360aU,
  0xe3ee37253bfaad35U, 0xcbf3e94ec13ab3f8U, 0xbb2aee3a4ed2dcc6U, 0x40e2a82d2c00e00aU,
  0xdeebf3d858a03248U, 0x41a94a25bc2cc612U, 0x29beddffc6e4143eU, 0x10d0ddcdcdfad4d2U,
  0xd512dfdb1dfb37ffU, 0x664b1bd3d13ff001U, 0x13c22d342e491f24U, 0x5409f3cf1eabc446U,
  0xcaf406415f2dfc28U, 0x146feb6247f02ccU, 0xeeb3ddf6de4d0ddeU, 0x2afff95982e7e6e3U,
  0xa14e3f2fccec90eU, 0xf6de910b08ef1a26U, 0x29d631f431e9cb49U, 0xc526ebf6d34bd90cU,
  0xdcbbac0801011137U, 0x20c730312032c13bU, 0x7e03be14c53ab021U, 0x373f0eca3114ef22U,
  0x41a291d10cb2e2fU, 0xf7eca81ed6bfe162U, 0x52c7dcbcbd23f02fU, 0xf103f7c8e0f8e017U,
  0x4105e9fc3ff64750U, 0x31301c19e276fe01U, 0xdbaa43a3f4c51d1aU, 0xb53ff95a37fbb810U,
  0xc1d6dedaec22e4f6U, 0xbbf1c917c53adfe0U, 0xcf270f1af2faa4c8U, 0x435509a425f0cdf2U,
  0xffe7459c271b0bdeU, 0xff18c3b1085432e7U, 0x2ed1c831132695U, 0x39d0d030e3bcd922U,
  0xdf22cb3d50f9b2e7U, 0x4e7d7380ec7fca2U, 0xa90140320e95be13U, 0xfe07cccd28db071eU,
  0x4f1933d1d9deee97U, 0x4fa7383b2724311dU, 0x15072a34aee8441bU, 0x6113f71047c9a7eeU,
  0xb71e4f43107e08b4U, 0xdc2108c4bced212cU, 0x7f29b5e81bff4e15U, 0xe99642d3341906ddU,
  0x2ae5b942d04934e4U, 0xd1c263f055332c0U, 0xcfc5270bd2fef7feU, 0xf6e4450d2ed89bcaU,
  0x1a3ce168f0241bd3U, 0xb5b8fcf31b0019f0U, 0x1ec5c2c8d9f639d6U, 0xdb1d2b4bd0ea2f15U,
  0x35240a3b1139c3f7U, 0xe6fe4402e61cf6d9U, 0xc6c8bf10b5cb46f3U, 0x470fe2fe2af9d3a1U,
  0x2eb80b1f1810f92dU, 0xefe5c5171ee7b0b2U, 0xb0f4222dcf4bbffaU, 0xfbd9eb061be42ef7U,
  0x25e6fec9fd2400deU, 0xfe6150dfbe6013aU, 0x25bed33492ecca29U, 0x2e3d00e91d3630b4U,
  0x65f2eac151e1d822U, 0x547f490e17472c04U, 0x172d42f5aaf82b42U, 0x39083f1f47bd2bf1U,
  0xc4cb62c9df3df4bcU, 0x483b3cd3c72af8aaU, 0xfe0648eed2dfc31dU, 0x27fa0ffed044a9f0U,
  0x951291ab12ef6deU, 0xc2b9158a0ff9cbe6U, 0x1c9a3cc42e4bc693U, 0xb146fcdc4e2db9eaU,
  0x3e3dd0b8de44d720U, 0x405e14f4cac70b10U, 0xc450fd2b1cf4d52eU, 0xc901beff01c1282dU,
  0xe4b1df3b264e9a3aU, 0xdd1e441e45da27f2U, 0xaf2d1a1331e30a2bU, 0xf7be091f30a65115U,
  0xd50b2edb3405065cU, 0xaca4b9e7fa410504U, 0xfbec1baed4f4c9caU, 0xd4e79dfb259c1805U,
  0x731cbfced80ffc05U, 0xbe45f3c1ed3d49f1U, 0x351bda4ef404cb31U, 0xb23d0e04f51481afU,
  0xcfcd5b86a35eafe6U, 0xc8d8e5e420ea0502U, 0x364003a8afcbbaa2U, 0xdc0caf1dc6f82a19U,
  0x5224d0c7e40dfd19U, 0x28c621b3c5ac1107U, 0x3606dd2b020646a4U, 0xfe45f432ff98f21eU,
  0x9e0ab3fd4eeb433dU, 0x53abe0be1d63101bU, 0xe2c591bc9065ed2U, 0x3cc3303141cfbcc8U,
  0xdee7b3210d10b04eU, 0xacfb637d4feadc9U, 0x49d1b40f2ad0811fU, 0xccf61ad20b39930fU,
  0xde14e0dd2fc0effeU, 0x46214ff008f9dfb4U, 0xfc1daff6dbfdf8e3U, 0xc9402fe8010b23ebU,
  0x3b4ef3d2513061fU, 0x1e4cd640f3e42831U, 0x18eb0f4df29dae23U, 0x533d0ad4e70d217bU,
  0xbd3829bc18b92144U, 0xabcdfe21ef0de152U, 0xcde324c3f8f3ba28U, 0x2c194beafe30dafdU,
  0xbf209ebde8dc1804U, 0xd9f7242067de06f8U, 0xd83d4e35240ac73bU, 0xee23d55ad6f1f22aU,
  0x3a202645c524d411U, 0x1b29ff2ad5ec41bfU, 0xea3e22141046d0c1U, 0xd2f17f39d91f43f8U,
  0xd62bbe42be3e1803U, 0x13fadf14da39eaf8U, 0x413a6344a628eee2U, 0xa6e31cd806c922cdU,
  0xccc226cdc2fbe7f7U, 0xed1f18432ea4c435U, 0xa3e03e330a1bf4cbU, 0xbfd93f33df15471cU,
  0xcec71feb23fc02f8U, 0xff0fc6af002d45cbU, 0xe43c3ee3e73826ccU, 0x5be2f43aedfb2cceU,
  0xe5faebb2a091be1U, 0x10c4a5cfe2eee51eU, 0xc8f3e237bbc711b5U, 0xe165b50ab726ff19U,
  0xc4c6fb0930ea30efU, 0xae2aa2d4fe05cbfdU, 0x25a6debfe8cae136U, 0x382dbf22fafe14d1U,
  0x40493eafdfdd4f1cU, 0x500c50f58df061cU, 0xf82f0ee92803412aU, 0xc1071343fc070723U,
  0x46211a48cf1dddd3U, 0xb44305ca2e170224U, 0xde44fd122af9ea2aU, 0x3d3648c61ef9d581U,
  0x25db2c0836a32bccU, 0x46b800295132310dU, 0x3adb4b24c9cd020fU, 0x831f9382f302b33U,
  0x2e10bf0211310801U, 0xf30f0d5b2fbcc142U, 0xc7dc532e2af1b3efU, 0xfa0cdbcb09d51734U,
  0x3c01222800ba22d3U, 0x30f113dee6e1d820U, 0x1240f4f1e038ed33U, 0xfa1c2e13d6cd3423U,
  0x4fe312ae45e7e1e3U, 0xe9084044c6bfc0a9U, 0xffdb370f184b08ffU, 0x2cc4184d30adc7cbU,
  0xc32995b9b4001c21U, 0xaa37ec201623cd12U, 0x617ce0b64e5ca2dU, 0x5f1febf5ecd00227U,
  0xb0f7b0170441cc01U, 0x66e6f115099d44d0U, 0xb7122bd438cd9c2dU, 0x181ca1dcf6d92b49U,
  0xeb0651c0123610e6U, 0x13b4c0074aafc23aU, 0x6a92c15e525aa08U, 0xbaa0a407da30ae31U,
  0xb2ac089df736bc30U, 0x45b42cab38cee4c5U, 0xe481d3d8182f06e4U, 0x7371a37efe3ffafU,
  0xe5dd58ec2eb4cbebU, 0x350519fbcef84e0bU, 0x406b01d1a2ee71fU, 0x2710ac28a7e8304fU,
  0xf5de1dcbd7d6d9f9U, 0x2e04c331fe450bf4U, 0x30d9390d260bdc35U, 0x4e06e4c62ec2ffdbU,
  0x7f4106283448f12dU, 0x2bcc20bd35caed1fU, 0x400f216d361be4faU, 0x52cad5e22806e325U,
  0xdd22ac2030ec15a1U, 0x24af02e3d400d317U, 0xbaddcde60056b7e3U, 0xd5c53de213cef51fU,
  0xec1803eb4bcc47f5U, 0x3719bce7f7eed6f4U, 0x23cb06e329fbf3ecU, 0xe5b61d246b3d0bdaU,
  0xd50522cb032ef3d2U, 0x49b6c5f3d08feebeU, 0x9f5b6d335b2f825U, 0xcaf620e5ac6130aeU,
  0x3a5c73025b6fd37U, 0x12b7edbafbaeadccU, 0x2c2ba13f3003b31cU, 0x31283ed20a293320U,
  0xca1d19ddeb31303cU, 0x2efeeab712ae1f40U, 0x30cb3ad1f7481cfcU, 0x34dfd210cac5f7c2U,
  0xbf291d2e1e1dbbffU, 0x29fdcdfbf238ec13U, 0xed7aed73ad3f720U, 0xeac02ec2e0efd5f1U,
  0x264739da01261717U, 0x32c7e94ef0f32ec3U, 0xfcea390b1d1413e1U, 0xcae8c3b8de47dd06U,
  0xe01ebcfdd820f4d5U, 0xd02d262e30d8f1e2U, 0xce133c1adedcb241U, 0x2e1fc87ff425ea2dU,
  0xc22e101ce2b2f1d5U, 0xac9d8253cb1eec9U, 0x1befe53abbccb4b7U, 0x1fcfc021b2290b01U,
  0xd6e8f71a1cb9bce3U, 0x4ed01f5da3824f6U, 0x2a19152f1de1fd1eU, 0xb8f512bd05c4f6fcU,
  0x15fbfa37f2d6f31eU, 0x292f18cdfbcebb08U, 0x3a2edc0efec4051dU, 0x3ec6c534fab3e019U,
  0x3c3f9bce312c010U, 0xf9cb0d3b39bdbbfeU, 0x36d901f4dd8a3cd1U, 0xe9e2b3efa9f41ffeU,
  0x19412c36ee39f638U, 0x14cc01c7c40dfd10U, 0x2311c13f30ba078bU, 0xf92ca53452ecfa40U,
  0xa12b55d13b3a2b44U, 0x28b9162ba7f5d227U, 0xff09b63636ffd10dU, 0x191b21c2b95e0226U,
  0x10433cc4ca3f06c3U, 0xcfcad5ba27e0f00eU, 0xafdd0ecc12a4daceU, 0x21eae31cce6527d5U,
  0x7f1ab6453ba7dbcdU, 0x37a8b60edfe518e8U, 0x1a3bdbe5ffceebdfU, 0x35ddc7c31942f1e0U,
  0x23ccdc31c3b9d3e6U, 0x2058edd729481147U, 0xe223e9d1e4ff33d9U, 0xf806aeb1b1ec2a08U,
  0xa8ef0bacbbf4feb3U, 0xb70261f1e4bdc601U, 0x5102104af357c58dU, 0xed50941637f63467U,
  0xf441161ddba03197U, 0xa60a5118333200d6U, 0xf30e6338caba1759U, 0x17138f170d08309cU,
  0x5c323011504cba10U, 0xc44813dba29b34b2U, 0xffae29c496119943U, 0x932ae3143f34ee16U,
  0x5416d099c2bb9a7fU, 0xfa02cdb80128b754U, 0x1fe7c61ca923cd13U, 0x4039061426c7e8f5U,
  0x1ff22852385bfdf6U, 0x24ca9dacb1d46d0U, 0xc2381e0749872594U, 0x3f9cdcfb3da822ecU,
  0x39a42d0c15429cb5U, 0xcbb28a8bbbc4e993U, 0xd4d61cd6c4821fe8U, 0x5cf642cb1c38b115U,
  0x9c1155cc1c889746U, 0xb9b6ad675165fad8U, 0xdbc60ccb4435bdb6U, 0xd7332c3806270a20U,
  0x32bbd33bfc57db0eU, 0xdac5302255e1ae11U, 0xb30bc735dc1446cdU, 0xefeff5df2af1bbdcU,
  0xfb81cf2ef73eca42U, 0xab15210ac42b44e8U, 0xdc27f2d8ee3bce40U, 0xffbd2fce1a4be81fU,
  0xec03d42ce30841ccU, 0x17a716073eda1cbbU, 0xbc1dbaf2f4e210f4U, 0xb9f71c0148f0ce1dU,
  0xc842ef38e9022eeeU, 0xb90c10facfd238c4U, 0xeffc37dafecb2d18U, 0x1504f3ecefa907f1U,
  0x3806a9cbb1e441bcU, 0x25f505cbb7ce47f0U, 0xfe34e5102c3dee17U, 0xbd3c36dc412ac23dU,
  0xf63af1f9e1d13dcbU, 0xbafcf32159e20ad1U, 0x2c19d3b0e9664536U, 0xba12b5c8193dd23aU,
  0xb0c8a70b272a4658U, 0xeff2123fa74440f8U, 0xf99f4bd1b817f9c1U, 0x4adfd010512203bfU,
  0x4dcf00aa7fb6f03dU, 0x2a6dd815dd03e5d0U, 0xc333c216365457feU, 0xbbf04e2edc208f1U,
  0xcf43239dc8180045U, 0xc46db3c11cc1f1dU, 0x32ab04085623078aU, 0x2a1cd8c653fd1105U,
  0xaabcdfa7b2660d3eU, 0x4849d9fb9e0a18cdU, 0xddf1b3485f5cd9d2U, 0x7102bee51bc0b5b1U,
  0x4ae81d1e3cfeae1eU, 0x2e4421bb23b7eaecU, 0x144ac31dcad2d4c6U, 0xcc4ab2def94fde3dU,
  0xfbae4403a80a0b54U, 0x32dd132cbe0b1856U, 0xdd14ddc746b732e0U, 0x1102f2f8aeffe10cU,
  0xc7023f15f6fad024U, 0x45371c154cf90e54U, 0x1701fb06da04d7e1U, 0xcd94d60d321eadbcU,
  0x18c3da033eb24645U, 0x330f54f6dca4ced5U, 0xfde1e0d439b10f41U, 0x3be8b9e710bbdfbaU,
  0xb5484740cecb1ff0U, 0xdd31ee9907be3ec0U, 0x10ec0ebff7c8163cU, 0x1ab5cacc6102e9dU,
  0x13231d7fdfd8bbeaU, 0xc127f22c0cd9a60cU, 0xcacc20bf27e8fa42U, 0xf53d52d4d3e338a9U,
  0xe2cac40b44c2d2f6U, 0x3e4b9c302042ce3U, 0x1524d99b0a18f3e7U, 0x2e450642cc2d1a36U,
  0x54e4be2438f6d29fU, 0x61e0cf9acb2de0cU, 0x416d2321934f1a7U, 0x5ea74ab8f7e15306U,
  0xade555cde430fd1cU, 0xce18282615151414U, 0xdbe6ab2b1841bdceU, 0xaf219cdf4c95edccU,
  0xf5e49045ca4e36ffU, 0x3a2651cdf3090ff6U, 0xdc09b1c0be031ec5U, 0x4d27c20dcbabadbeU,
  0xb8c9f8d7cf0db60cU, 0x741b0121bf9edc4U, 0xcc3d9dd01d36bc1eU, 0xdcb5b696a70dd0d6U,
  0xcdaecae6d1e8fdceU, 0x11ab19b45bd9cccdU, 0xe836f2fc16b58519U, 0xadbd2302ab46dee2U,
  0xf220ceca1e29cbdfU, 0x1f2caec7d7501591U, 0xae449b15bf87e9e9U, 0x42b5dce7b7cb3911U,
  0xc3228e1f20fad4cdU, 0x2620dc1f57a746eeU, 0xe410e699338b207fU, 0xc2311892a5d81a38U,
  0xb040c9053b1cfcfdU, 0xfe3d259ecbe93118U, 0x1e5df697b2a14cfbU, 0xa555f04dc0aec1b0U,
  0xdfcdf57ff84d4ba3U, 0x3af607d70bf41bb4U, 0x2cbeaff6bdeb56baU, 0xf037ff4b5aaa61e4U,
